##0
##00
##001
##01
##02
##03
##0301
##04
##05
##06
##07
##08
##09
##1
##10
##100
##1000
##101
##102
##103
##104
##105
##106
##107
##108
##1080
##109
##11
##110
##1100
##111
##112
##113
##114
##115
##117
##118
##12
##120
##1200
##121
##123
##124
##125
##126
##129
##13
##130
##131
##134
##135
##136
##139
##14
##140
##14021
##15
##150
##156
##159
##16
##160
##17
##170
##175
##176
##18
##180
##184
##186
##188
##189
##19
##190
##198
##2
##20
##200
##2000
##2001
##201
##2010
##2012
##2014
##2015
##2016
##2017
##2018
##202
##203
##204
##205
##206
##21
##210
##22
##220
##220201
##2203
##225
##226
##23
##235
##24
##240
##247
##25
##250
##26
##260
##269
##27
##270
##279
##28
##280
##287
##29
##290
##299
##3
##30
##300
##3000
##303
##304
##305
##31
##310
##32
##320
##321
##328
##33
##330
##333
##336
##34
##340
##340101
##34020
##340301
##34040
##35
##350
##355
##356
##36
##360
##365
##37
##370
##376
##38
##380
##386
##387
##389
##39
##390
##396
##4
##40
##400
##4000
##401
##404
##405
##406
##41
##412
##42
##43
##430
##434
##44
##440
##45
##450
##46
##460
##47
##470
##48
##480
##480201
##485
##49
##5
##50
##500
##5000
##501
##50404
##51
##510
##52
##520
##53
##54
##540
##541
##5451
##55
##550
##56
##560
##565
##57
##570
##58
##580
##589
##59
##599
##6
##60
##600
##6000
##609
##61
##610
##62
##628
##63
##64
##640
##65
##650
##66
##660
##67
##670
##68
##680
##686
##689
##69
##6976
##699
##7
##70
##700
##7000
##704
##71
##72
##720
##727
##729
##73
##737
##738
##74
##741
##743
##747
##75
##750
##756
##759
##76
##760
##768
##769
##77
##770
##777
##78
##780
##787
##789
##79
##790
##8
##80
##800
##8000
##804
##81
##810
##82
##829
##83
##84
##840
##848
##85
##850
##8500
##8501
##86
##860
##869
##87
##870
##88
##880
##888
##89
##890
##899
##9
##90
##900
##9000
##908
##909
##91
##919
##92
##93
##94
##95
##950
##9500
##9525
##96
##960
##969
##97
##98
##981
##984
##987
##99
##990
##996
##999
##9999
##a
##ab
##aba
##abad
##abbagh
##abe
##abelle
##abi
##ability
##able
##ables
##abu
##ac
##acchi
##ace
##aceae
##ach
##achi
##acht
##ack
##acker
##aco
##acre
##active
##ad
##ada
##adar
##addy
##ade
##ader
##adhya
##adi
##adler
##ado
##ads
##adze
##ae
##ael
##af
##afa
##afi
##afir
##afp
##afpf
##afra
##ag
##aga
##against
##agal
##age
##agher
##agi
##agin
##aging
##ago
##ags
##agua
##ah
##ahi
##ai
##aid
##ail
##ain
##air
##aire
##ais
##aise
##aj
##aja
##ajat
##ak
##aka
##akama
##akha
##akhon
##aki
##akil
##akio
##akis
##akorn
##akou
##akova
##aku
##akul
##al
##ala
##alađi
##ald
##alda
##aldehyde
##aldi
##aldo
##ale
##ales
##ali
##alia
##all
##alla
##allet
##allister
##allum
##ally
##alo
##alpina
##als
##alto
##alvin
##alvo
##aly
##alys
##am
##ama
##amadou
##amba
##ame
##amedy
##america
##ami
##amide
##amin
##amine
##amma
##amo
##an
##ana
##ance
##anchi
##and
##anda
##ande
##ander
##andi
##ando
##andoni
##andra
##andri
##andy
##ane
##ang
##anga
##angan
##angel
##angelica
##angelo
##ango
##anh
##ani
##ania
##anich
##anis
##anka
##anna
##anne
##annon
##ano
##anov
##anova
##anovic
##ans
##ansky
##ant
##anta
##antara
##ante
##antha
##anti
##anto
##antoro
##any
##anya
##anza
##ao
##aoki
##aoooòo
##aoui
##ap
##apa
##ape
##apoel
##apong
##aporn
##app
##apur
##aq
##aquim
##ar
##ara
##aranda
##arat
##arbi
##arch
##arco
##ard
##ardi
##ardo
##are
##areq
##aresko
##arev
##arga
##arge
##ari
##aria
##arina
##ario
##aris
##ariska
##arissa
##arit
##ark
##arle
##arlene
##arles
##arm
##arni
##aro
##arra
##arry
##ars
##arsha
##arslan
##art
##artan
##arte
##ary
##as
##asa
##asak
##asaka
##asama
##ase
##asebe
##ash
##ashev
##ashi
##ashvili
##asi
##asia
##asier
##asil
##asir
##asiri
##asmir
##ass
##assar
##asse
##asser
##assgo
##assi
##assie
##assy
##ast
##asti
##at
##ata
##atan
##atarina
##ate
##ated
##ater
##ath
##atharine
##ati
##ation
##ative
##ato
##ator
##atov
##atrice
##atsushi
##atta
##attana
##atti
##atum
##au
##aud
##auer
##ault
##authier
##aux
##av
##ava
##averin
##avero
##avi
##avia
##avie
##avila
##avo
##avu
##aw
##awa
##awad
##awan
##awat
##awati
##away
##awi
##awley
##awut
##awy
##ax
##axon
##ay
##aya
##ayo
##az
##aza
##azar
##azi
##azidis
##azir
##aziz
##azol
##azuma
##b
##ba
##bab
##baby
##bac
##bach
##bacher
##bacillus
##back
##bacterium
##bad
##baek
##baev
##bah
##bai
##bak
##baki
##bal
##bala
##ball
##bama
##ban
##bana
##band
##bang
##bani
##bank
##banking
##bao
##bar
##bara
##bari
##barov
##bas
##base
##bashi
##bastien
##bat
##bata
##bau
##baud
##baugh
##baum
##bay
##baya
##bb
##bbi
##bble
##bby
##bc
##bd
##be
##bean
##beat
##bec
##beck
##bed
##bee
##bei
##bek
##bel
##bell
##bella
##ben
##ber
##berg
##berger
##berry
##bert
##bery
##bes
##best
##bet
##bey
##bf
##bg
##bh
##bhat
##bi
##bia
##bian
##bic
##bie
##bier
##bike
##bil
##bilis
##bin
##bing
##bio
##bir
##bird
##bis
##bit
##biz
##bk
##bkhn
##bl
##bla
##black
##blast
##blatt
##ble
##bler
##bli
##blin
##bling
##blo
##block
##blog
##blue
##bm
##bo
##board
##boaz
##body
##bok
##bol
##bold
##bon
##bond
##bong
##boo
##book
##books
##boot
##bor
##bora
##borg
##born
##borne
##boro
##borough
##bos
##bot
##bou
##boul
##bourg
##bourne
##bow
##box
##boy
##bp
##bpckqt
##br
##bra
##bracing
##brand
##bre
##break
##bri
##bridge
##bro
##brook
##brow
##bruck
##bs
##bsi
##bt
##btc
##btu
##bu
##bua
##build
##builder
##buk
##bul
##bull
##bum
##bun
##buquer
##bur
##burg
##burger
##buri
##burn
##bury
##bus
##but
##buzz
##buôr
##bv
##bvts
##bx
##by
##byte
##bà
##bán
##báo
##bé
##bđ
##bđq
##bạn
##bị
##c
##ca
##cable
##cac
##cade
##cafe
##cal
##call
##cam
##camp
##can
##cana
##cano
##cao
##cap
##capital
##car
##carbon
##card
##care
##carlo
##caroon
##cary
##cas
##casa
##case
##cast
##cat
##cation
##cause
##cb
##cc
##cca
##ccari
##cci
##ccio
##cco
##cd
##ce
##cek
##cel
##cell
##cen
##cent
##cente
##center
##central
##cept
##cer
##cera
##cert
##ces
##cey
##ch
##cha
##chai
##chak
##chal
##challenge
##cham
##champs
##chan
##chang
##channel
##chanov
##chao
##char
##charge
##charoen
##chart
##chat
##chau
##chaya
##che
##chel
##chelle
##chem
##chen
##cheng
##chenko
##chentina
##cheon
##cher
##ches
##chesky
##chester
##chet
##chev
##chi
##chia
##chida
##chik
##chin
##china
##chino
##chio
##chip
##chit
##chita
##chko
##cho
##chowski
##chqs
##chter
##chu
##chua
##chuan
##chuk
##chun
##chung
##chus
##chy
##chính
##chỉ
##ci
##cia
##cial
##cic
##cie
##ciete
##cil
##cin
##cina
##cine
##cini
##cino
##cio
##cis
##cit
##city
##ciu
##ck
##ckaert
##cke
##cken
##cker
##cket
##ckett
##cking
##ckman
##cks
##cl
##class
##clc
##cle
##clemente
##cliffe
##clip
##clo
##cloud
##club
##cmillan
##cn
##co
##coast
##cock
##code
##coin
##col
##cola
##color
##com
##combank
##combe
##commerce
##como
##con
##conazole
##config
##connect
##cons
##constec
##consult
##control
##cool
##coopers
##cop
##copter
##cor
##core
##corp
##corporate
##cos
##cot
##cott
##count
##court
##cova
##cover
##cp
##cq
##cr
##cra
##craft
##credit
##croft
##cross
##crypt
##cs
##cst
##ct
##cta
##cter
##cthads
##ctor
##cttl
##cu
##cular
##cun
##cup
##cure
##currency
##cus
##cut
##cuộc
##cv
##cw
##cx
##cy
##cycle
##cz
##czak
##czyk
##các
##còn
##có
##cô
##công
##cùng
##cđ
##cũng
##cơ
##cả
##của
##d
##da
##dad
##dahl
##dai
##daily
##dak
##dal
##dale
##dallah
##dam
##dama
##damel
##dan
##dana
##dance
##dang
##dani
##dao
##dar
##dara
##dari
##das
##dat
##data
##date
##dau
##dav
##daw
##day
##db
##dc
##dcnd
##dd
##dda
##ddeutsche
##ddle
##ddy
##de
##deathly
##dec
##ded
##dee
##deen
##deep
##def
##deh
##del
##dell
##dem
##den
##dent
##deo
##dep
##der
##dera
##derman
##des
##design
##det
##detect
##dev
##dex
##dez
##df
##dg
##dge
##dh
##dhar
##dhi
##dhra
##di
##dia
##dian
##dic
##dico
##dict
##did
##die
##diesel
##dif
##dil
##din
##dina
##dine
##ding
##dinh
##dini
##dino
##dio
##dip
##dir
##direct
##dis
##dit
##dition
##dium
##divine
##diya
##dj
##dji
##dk
##dl
##dle
##dman
##dmark
##dn
##do
##doanh
##doc
##dock
##dog
##dok
##dol
##doll
##dom
##don
##done
##dong
##doo
##door
##dor
##dora
##dore
##dorf
##dos
##dot
##dottir
##douard
##dov
##dow
##down
##dp
##dpi
##dr
##dra
##dragon
##dram
##dre
##dri
##dric
##drid
##drin
##drive
##dro
##droid
##dron
##drop
##drum
##dry
##ds
##dt
##du
##duc
##dul
##dun
##dung
##dur
##dura
##dus
##dv
##dvn
##dw
##dwick
##dwt
##dx
##dy
##dyne
##dz
##dzhi
##dzi
##dé
##dés
##dự
##e
##ea
##each
##ead
##eal
##ean
##ear
##earns
##eas
##east
##eats
##eau
##eaux
##eave
##eb
##ebe
##ebel
##eber
##ebi
##ebo
##ec
##eca
##ecce
##ecco
##ech
##eck
##ecker
##eco
##ect
##ection
##ed
##eda
##edano
##edder
##eddin
##eddine
##ede
##eder
##edes
##edge
##edi
##edo
##edra
##edson
##edu
##edurne
##ee
##eed
##eehan
##eek
##eel
##eem
##een
##eeney
##eep
##eer
##ees
##eev
##ef
##efeo
##efer
##eff
##eg
##ega
##egan
##egas
##egawa
##ege
##egel
##egen
##eger
##egg
##eghe
##egi
##ego
##egy
##eh
##ehl
##ehr
##ehud
##ei
##eid
##eif
##eight
##eiko
##eil
##ein
##eir
##eira
##eiro
##eister
##eit
##ej
##ejo
##ek
##eke
##eker
##eki
##eko
##el
##ela
##eladon
##elda
##elder
##ele
##elen
##elena
##elephone
##eles
##eletey
##eli
##elia
##elic
##elief
##elife
##elim
##elin
##elina
##elio
##elis
##ell
##ella
##elle
##eller
##elli
##elling
##ellini
##ello
##ellor
##elman
##elo
##elora
##els
##elson
##elton
##ely
##em
##ema
##eman
##emba
##ember
##eme
##emek
##ement
##emi
##emo
##emon
##en
##ena
##enas
##enbach
##enbauer
##enberg
##enberger
##enburg
##ence
##enco
##end
##enda
##ende
##ender
##endi
##endo
##endorf
##endra
##ene
##ener
##energo
##enfeld
##eng
##enge
##engkham
##enham
##enheim
##eni
##enia
##enix
##enko
##enkov
##enne
##enny
##eno
##ens
##ense
##ensis
##ensky
##enstein
##ensus
##ent
##ental
##entech
##enthal
##ential
##entium
##eny
##enz
##enza
##enzel
##eo
##eodoro
##eon
##ep
##epien
##epp
##eppe
##eq
##er
##era
##eras
##erasil
##erat
##ere
##eren
##erence
##eres
##eret
##erez
##erg
##erge
##eri
##eria
##eric
##erick
##eridi
##erie
##erin
##ering
##erle
##erman
##erme
##ern
##erna
##erne
##erner
##ernie
##ero
##erol
##eron
##eros
##erra
##erre
##erri
##erry
##ers
##erson
##ert
##erta
##erte
##erton
##eru
##erve
##ervo
##ervé
##ery
##es
##esa
##esan
##esch
##esco
##escu
##ese
##esen
##esh
##esha
##esi
##esia
##esin
##esman
##eso
##esper
##esque
##ess
##essa
##essar
##esse
##essel
##esser
##essie
##essio
##essy
##est
##este
##ester
##esti
##eswar
##et
##eta
##etan
##etchen
##ete
##etel
##eter
##etest
##etfair
##eth
##ether
##ethyl
##ethylen
##eti
##etic
##etnam
##etno
##eto
##eton
##etrich
##ets
##etsky
##etsu
##etsuo
##ett
##etta
##ette
##etter
##etti
##ettle
##etto
##etty
##etz
##eu
##euil
##eul
##eum
##eun
##eung
##eunjung
##eur
##eus
##euser
##eut
##eux
##ev
##eva
##evada
##eve
##even
##ever
##evic
##evich
##evo
##evski
##evsky
##ew
##ewell
##ewlett
##ewood
##ewski
##ex
##exa
##exco
##exim
##expected
##expo
##export
##express
##ey
##eye
##ez
##eza
##eze
##ezza
##eé
##f
##fa
##fac
##face
##fair
##fal
##fall
##fan
##fang
##far
##farm
##fas
##faso
##fast
##fat
##fc
##fd
##fe
##fed
##feed
##fei
##fel
##feld
##fen
##feng
##fer
##fest
##ff
##ffe
##ffel
##ffer
##ffi
##ffie
##fford
##ffy
##fg
##fi
##fia
##fic
##fico
##fid
##field
##fil
##file
##fill
##film
##fin
##fina
##finance
##fiore
##fiq
##fire
##first
##fish
##fit
##fix
##fjord
##fl
##flare
##flash
##flex
##fli
##flo
##flow
##flower
##flu
##fly
##fmh
##fo
##foco
##focus
##fold
##folia
##fon
##fone
##fonso
##food
##foot
##football
##for
##force
##ford
##forest
##form
##fort
##fos
##four
##fox
##fp
##fps
##fr
##fra
##frame
##france
##franco
##fre
##fred
##free
##fresh
##fri
##fried
##frieslandcampina
##front
##fruit
##fs
##ft
##fta
##ftus
##fu
##ful
##fumi
##fun
##fund
##fur
##fv
##fw
##fx
##fy
##g
##ga
##gaard
##gai
##gal
##gala
##gam
##game
##gami
##gan
##gana
##gang
##gao
##gap
##gar
##gara
##gard
##garden
##gart
##gas
##gat
##gate
##gawa
##gaz
##gb
##gbps
##gd
##ge
##gel
##gen
##gence
##gene
##gens
##gent
##ger
##ges
##get
##gf
##gged
##gger
##ggett
##ggi
##gging
##ggins
##ggy
##gh
##ghan
##ghani
##ghe
##ghen
##ghi
##ght
##ghz
##ghị
##gi
##gia
##giang
##gie
##gier
##gil
##gin
##gini
##gio
##giri
##girl
##gis
##git
##giving
##giá
##giê
##giải
##giảm
##giới
##giờ
##gl
##gla
##glass
##gle
##gli
##glia
##glie
##glio
##globin
##globulin
##gma
##gna
##gnan
##gne
##gner
##gni
##gno
##gnon
##go
##goda
##gol
##gold
##gon
##gonna
##good
##gor
##gora
##gorz
##gos
##got
##gov
##gp
##gr
##gra
##grad
##gram
##graph
##grass
##grave
##gre
##green
##gren
##gri
##group
##grove
##grow
##gs
##gst
##gt
##gu
##guang
##guard
##guchi
##gue
##guera
##guet
##gui
##guide
##gul
##gun
##guo
##gur
##gus
##gv
##gw
##gye
##gyi
##gđ
##gđtt
##gười
##h
##ha
##hab
##had
##hai
##hail
##hak
##hal
##hala
##hall
##ham
##hama
##hamid
##hampton
##han
##hana
##hand
##hang
##hani
##hao
##har
##hara
##hard
##hardt
##hari
##hart
##haru
##has
##hashd
##hashi
##hat
##hati
##hatma
##haus
##hausen
##hauser
##hav
##haven
##hawk
##hay
##haya
##hc
##hcb
##hcm
##hcv
##hcđ
##hd
##he
##head
##health
##heart
##hee
##hei
##heiko
##heil
##heim
##heimer
##hel
##heldon
##hem
##hen
##her
##hgd
##hhh
##hi
##hia
##hid
##hide
##hiko
##hil
##hill
##him
##hin
##hip
##hir
##hiri
##hiro
##his
##hisa
##hit
##hiêp
##hiếc
##hiếu
##hiều
##hiệm
##hiện
##hk
##hktt
##hl
##hler
##hmad
##hmas
##ho
##hoa
##hoe
##hoek
##hof
##hofer
##hoff
##hok
##hold
##holic
##holm
##holt
##holz
##hom
##home
##homme
##hon
##hong
##hoo
##hood
##hoon
##hor
##horn
##hot
##hotel
##hou
##hour
##house
##hoàn
##hoàng
##hoáy
##hoăn
##hoạt
##hoẻn
##hp
##hq
##hr
##hra
##hri
##hs
##ht
##hu
##hua
##hub
##hui
##hum
##hun
##hung
##hur
##hurst
##hus
##huy
##huếnh
##hvn
##hwa
##hy
##hydro
##hyun
##hz
##hát
##háu
##hính
##hđ
##hẩm
##hậm
##hắp
##hẻ
##hể
##hểnh
##hễ
##hỉnh
##hồ
##hội
##hợp
##hừng
##i
##ia
##ial
##ian
##iana
##iano
##iao
##ias
##ib
##iba
##ibal
##ibar
##iber
##ibi
##ible
##iboon
##ic
##ica
##ical
##ice
##ich
##iche
##ichi
##ichiro
##ichon
##ici
##ick
##ickie
##ico
##ics
##icus
##id
##ida
##idae
##idan
##iddi
##ide
##ides
##idi
##idis
##idney
##ido
##ids
##idze
##ie
##iel
##ien
##ienta
##ier
##iere
##iers
##ies
##iev
##if
##ifah
##ife
##ifer
##iff
##ifi
##ification
##ified
##ifier
##ify
##iga
##igal
##igan
##ige
##iger
##igh
##igno
##igny
##igo
##ihiro
##iii
##ij
##ija
##ijn
##ik
##ika
##ike
##iken
##iki
##iko
##ikov
##iku
##ikul
##il
##ila
##ile
##iles
##ili
##ilia
##ilian
##ilicic
##ilie
##ilin
##ility
##ill
##illa
##illard
##ille
##illiam
##illian
##illie
##illier
##illing
##illion
##illo
##illon
##illy
##ilo
##ilon
##ilov
##ilson
##im
##ima
##image
##ime
##imex
##imexco
##imi
##imir
##imitation
##immy
##imov
##in
##ina
##inacio
##inch
##inco
##inda
##index
##indo
##ine
##inen
##iner
##ines
##info
##ing
##inga
##ingen
##inger
##ingham
##ingrid
##ings
##ington
##inho
##ini
##inings
##ink
##inkel
##inkley
##inksys
##ino
##inov
##ins
##insider
##insk
##inski
##insky
##inson
##int
##inter
##intercontinental
##inus
##invest
##io
##ion
##ional
##ions
##ior
##ios
##ip
##ipa
##ipper
##ippo
##iq
##ique
##ir
##ira
##ire
##iri
##irivadhanabhakdi
##iro
##irse
##is
##isa
##ise
##isek
##ish
##isha
##ishi
##ishvili
##isi
##isk
##islav
##ism
##iso
##ison
##israel
##iss
##issa
##issance
##issei
##issimo
##issy
##ist
##ista
##istan
##ister
##istic
##isto
##isuke
##isy
##it
##ita
##ital
##itan
##itano
##itch
##ite
##iter
##ith
##iti
##ities
##itis
##ito
##itol
##its
##itsa
##itsky
##itsyn
##itt
##itter
##itting
##ity
##itz
##itzer
##itzhak
##iu
##ium
##ius
##iv
##iva
##ival
##ive
##ives
##ivity
##ivka
##iwa
##ix
##iya
##iyah
##iye
##iyeh
##iyi
##iyo
##iz
##iza
##ization
##ize
##ized
##izer
##izing
##izzo
##izzy
##iêm
##iên
##iêng
##iêu
##iến
##iếng
##iếp
##iết
##iếu
##iềng
##iều
##iểu
##iễu
##iệc
##iện
##iệt
##iệu
##j
##ja
##jad
##jae
##jah
##jak
##jal
##jali
##jan
##jana
##jang
##jani
##janmaa
##jar
##jaya
##jc
##jd
##je
##jean
##ject
##jeda
##jee
##jeev
##jen
##jeong
##jer
##jes
##jet
##ji
##jia
##jian
##jiang
##jibril
##jic
##jie
##jil
##jima
##jin
##jinda
##jing
##jit
##jiv
##jja
##jk
##jo
##jon
##jong
##joo
##jor
##jou
##jour
##joy
##jp
##jpy
##js
##ju
##juan
##jun
##jung
##k
##ka
##kachev
##kada
##kaew
##kai
##kaku
##kal
##kala
##kalb
##kami
##kamoto
##kamp
##kan
##kana
##kang
##kao
##kar
##kara
##kari
##karn
##karta
##kas
##kashi
##kashima
##kat
##kata
##kato
##katsu
##kawa
##kazu
##kb
##kbps
##kc
##kcal
##kd
##ke
##keda
##keeper
##kel
##ken
##keo
##ker
##kers
##kes
##kesh
##ket
##keviciu
##key
##kh
##kha
##kham
##khan
##khanov
##khar
##kheil
##khet
##khi
##khir
##kho
##khoa
##khod
##khov
##khq
##khu
##khz
##không
##ki
##kia
##kic
##kid
##kids
##kie
##kiewicz
##kill
##kim
##kimoto
##kin
##kina
##king
##kins
##kiri
##kis
##kistan
##kit
##kita
##kk
##kka
##kke
##kkei
##kki
##kko
##kl
##kla
##kle
##km
##ko
##koff
##kol
##kon
##kong
##kor
##korn
##kos
##kosmos
##kot
##kou
##kov
##kova
##kovic
##kovsky
##kow
##kowski
##kp
##kr
##kra
##kri
##krit
##krông
##ks
##ksh
##kshi
##kt
##ktqp
##ku
##kuji
##kul
##kum
##kuma
##kumar
##kun
##kur
##kura
##kut
##kv
##kva
##kw
##kwa
##kwh
##ky
##kyo
##kyung
##kz
##kđt
##l
##la
##lab
##lac
##lach
##lad
##lada
##lade
##lag
##lah
##lahi
##lai
##lain
##laine
##laire
##lak
##lake
##lal
##lala
##lam
##lan
##lana
##lance
##land
##lander
##lands
##lane
##lang
##lange
##lani
##lao
##lap
##lapa
##lar
##larissa
##las
##lastic
##lat
##late
##lation
##lau
##laughlin
##lav
##law
##lay
##lb
##lberg
##lbert
##lc
##lcd
##lcnt
##lco
##ld
##lde
##lder
##ldo
##le
##lea
##league
##leaks
##lec
##led
##lee
##leh
##lei
##leigh
##lek
##leksander
##lem
##lema
##leman
##len
##lena
##lene
##lenko
##lenny
##leo
##ler
##lert
##les
##less
##let
##lett
##lette
##lev
##lex
##ley
##leyton
##lez
##lf
##lfried
##lh
##li
##lia
##lian
##liana
##liang
##liant
##lib
##lic
##lica
##lice
##lich
##lick
##lid
##lie
##lien
##lienvietpostbank
##lier
##lies
##life
##lift
##lig
##liga
##light
##lik
##like
##lil
##lim
##lima
##limbert
##lin
##lina
##linda
##lindo
##line
##lines
##ling
##linger
##linh
##lini
##link
##lino
##lio
##lion
##lip
##lis
##lish
##list
##lit
##lita
##lite
##litz
##liu
##lium
##lius
##live
##liver
##lix
##liya
##lk
##lkay
##ll
##lla
##llah
##llan
##llar
##llard
##lle
##ller
##lles
##lley
##lli
##llin
##llis
##lliton
##llium
##llman
##llo
##llon
##llos
##llot
##lls
##lly
##lma
##lman
##lmer
##lner
##lo
##load
##loc
##local
##loch
##lock
##locker
##log
##logic
##lohydric
##lok
##lom
##lon
##lone
##long
##loo
##look
##lop
##lope
##lor
##lore
##los
##lose
##loss
##lot
##lou
##lov
##lova
##love
##low
##loy
##lp
##lpa
##lr
##ls
##lt
##lta
##lte
##lter
##ltt
##lu
##luigi
##luk
##lum
##lumin
##lun
##lund
##lung
##lus
##lusso
##lut
##lute
##lux
##luy
##lv
##lva
##ly
##lya
##lyn
##lz
##là
##làm
##lá
##lé
##lê
##líp
##lít
##lô
##lđ
##lđt
##lđxh
##lại
##m
##ma
##mac
##mach
##made
##mag
##magazine
##mah
##mai
##mail
##main
##mak
##maker
##mal
##mala
##malaysia
##malek
##mali
##man
##mana
##mancio
##mang
##mani
##mania
##mann
##mans
##map
##mar
##mara
##mare
##mari
##marin
##marine
##mark
##market
##mart
##maru
##mas
##masa
##mash
##master
##mat
##mata
##mate
##mati
##matic
##matsu
##max
##may
##maz
##mb
##mba
##mbardo
##mber
##mbo
##mbps
##mbra
##mc
##mcg
##md
##mdb
##me
##mec
##med
##media
##medic
##mee
##meer
##mei
##meier
##mel
##men
##ment
##mer
##mera
##mere
##merson
##mes
##met
##meter
##methyl
##metric
##mex
##mey
##meyer
##mez
##mf
##mg
##mhz
##mi
##mia
##mic
##mid
##mie
##mier
##mil
##mila
##milk
##min
##mina
##mind
##ming
##minh
##mini
##mino
##minute
##mir
##miro
##mis
##mission
##mit
##mita
##mitr
##mitsu
##mittal
##mix
##miya
##mizu
##mk
##mki
##mkk
##ml
##mm
##mmad
##mmar
##mmel
##mmer
##mmhg
##mmol
##mo
##mobi
##mobile
##mode
##moenchengladbach
##moez
##mohan
##moi
##mok
##mol
##molins
##moller
##mon
##mond
##money
##mongkol
##monitor
##mont
##mony
##moon
##mor
##more
##mori
##mos
##most
##mot
##motion
##moto
##mou
##mount
##mour
##mouth
##moy
##mp
##mpa
##mper
##mple
##mpo
##mr
##ms
##mt
##mttq
##mtv
##mu
##mua
##mulder
##mum
##mun
##mund
##mur
##mura
##mus
##music
##mut
##muth
##mv
##mva
##mw
##mx
##my
##mycin
##mét
##môn
##một
##n
##na
##naby
##nad
##naga
##nagar
##nah
##nai
##nak
##nal
##naland
##naldo
##nam
##name
##nami
##nan
##nap
##nar
##nara
##nard
##nari
##naro
##nas
##nat
##nath
##nathan
##nation
##national
##nav
##naya
##naz
##nb
##nc
##nca
##nce
##nci
##ncy
##nd
##nda
##ndall
##ndar
##ndchen
##nde
##nder
##nderworld
##ndler
##ndless
##ndon
##ndra
##ndroi
##nds
##ndt
##ne
##neau
##ned
##nee
##neft
##nel
##nell
##nelli
##nen
##neo
##ner
##nes
##ness
##net
##nette
##nev
##new
##news
##nex
##next
##ney
##nez
##ng
##ngdong
##nguyen
##nguyễn
##ngyi
##ngày
##người
##nh
##nha
##nhanh
##nhiều
##nhà
##như
##nhưng
##nhận
##những
##ni
##nia
##nic
##nica
##nice
##nick
##nie
##nier
##nig
##night
##nik
##nikov
##nil
##nin
##nina
##ning
##nis
##nit
##nium
##nix
##nk
##nka
##nkin
##nl
##nm
##nna
##nnie
##nning
##nny
##no
##nobu
##nol
##non
##none
##nor
##nori
##norio
##nos
##not
##note
##notre
##nov
##nova
##now
##noy
##ns
##nsut
##nt
##nta
##nte
##nti
##nto
##nton
##num
##nus
##nv
##nviz
##ny
##nya
##nyi
##nz
##này
##né
##năm
##nđ
##nđk
##nơ
##nước
##o
##oa
##oamer
##oates
##ob
##oba
##obe
##obi
##obo
##oc
##ocha
##oche
##ock
##oco
##od
##oda
##odaco
##ode
##odin
##odion
##odo
##odon
##ody
##oe
##oen
##oeun
##of
##off
##office
##oft
##og
##oga
##ogas
##ogen
##oglu
##ogo
##ographic
##ography
##ogu
##oh
##ohno
##oi
##oid
##oire
##ois
##oise
##oit
##oji
##ok
##oka
##oke
##okhin
##oki
##okie
##oko
##oku
##okyu
##ol
##ola
##olby
##old
##ole
##oleic
##olene
##olent
##oleon
##oli
##olin
##oline
##olini
##olla
##ollah
##olle
##ollo
##olo
##ological
##ology
##olotov
##olov
##om
##oma
##ombo
##ome
##omi
##omics
##omir
##omo
##omsak
##on
##ona
##onda
##ondo
##one
##onex
##ong
##ongchang
##oni
##onia
##onic
##onie
##onix
##online
##onna
##onne
##ono
##onov
##ons
##ony
##oo
##ood
##ook
##ool
##oom
##oon
##oong
##ooooooooòo
##ooooòo
##oop
##ooper
##oor
##oos
##oot
##ooyoung
##op
##ope
##opia
##opoulos
##ops
##optic
##oquoc
##or
##ora
##oracio
##orbiter
##ord
##orda
##orde
##ordon
##ore
##orentin
##organ
##orgy
##ori
##oria
##orn
##orning
##oro
##orpheus
##orreira
##orrell
##ors
##orsk
##ort
##ortege
##orum
##ory
##os
##osa
##osamu
##osaurus
##ose
##oshi
##oshimitsu
##oshio
##osis
##osk
##oso
##ossack
##osses
##ossi
##ost
##oster
##osti
##osuke
##ot
##ota
##ote
##oth
##other
##oti
##oto
##otoxin
##otta
##otte
##otti
##otto
##otye
##ou
##ouche
##ouchen
##ouchi
##oud
##oudou
##ouf
##ough
##ouk
##oul
##oulou
##oum
##oun
##ound
##ounty
##oup
##our
##oura
##ous
##ouse
##ousse
##oussi
##out
##ouvong
##oux
##ouz
##ov
##ova
##ove
##oven
##over
##ovic
##ovich
##ovitch
##ovka
##ovna
##ovo
##ovsk
##ovskaya
##ovski
##ovsky
##ová
##ow
##owa
##owden
##owei
##owicz
##owie
##owitz
##own
##ows
##owska
##owski
##ox
##oxin
##oxy
##oy
##oya
##oye
##oyer
##oyo
##oz
##oza
##oài
##oàn
##oát
##oãn
##oóc
##oại
##oạt
##oản
##p
##pa
##pac
##pacific
##pack
##pad
##page
##pai
##pak
##pakorn
##pal
##pala
##pan
##pani
##panich
##pano
##pao
##pap
##papastathopoulos
##par
##para
##parast
##park
##part
##pas
##pass
##pat
##path
##pati
##pay
##pb
##pc
##pd
##pe
##pea
##pec
##pedia
##pei
##pel
##pen
##peng
##per
##pers
##pert
##pes
##pet
##petch
##petro
##pex
##pf
##ph
##pha
##phal
##phan
##pharco
##pharm
##phat
##phe
##phen
##phenyl
##pher
##phet
##phi
##phin
##pho
##phobia
##phol
##phon
##phone
##phong
##phos
##photo
##phu
##phy
##phát
##phút
##phải
##pi
##pia
##pic
##pid
##pie
##pin
##pine
##ping
##pio
##piro
##pit
##pix
##pixel
##pj
##pkin
##pl
##pla
##plan
##plas
##plast
##platz
##play
##player
##ple
##plex
##plo
##plus
##pm
##pmu
##po
##pod
##point
##pol
##poli
##polis
##political
##poly
##pon
##pong
##poo
##pool
##pop
##por
##pore
##porn
##port
##pos
##position
##post
##pot
##pour
##pov
##power
##pp
##ppa
##ppan
##ppe
##pped
##ppel
##ppen
##pper
##ppi
##pping
##pple
##ppm
##ppo
##ppy
##pq
##pr
##pra
##prasert
##pre
##preet
##press
##pri
##price
##print
##pro
##prom
##propyl
##ps
##pt
##pu
##puea
##pul
##pulse
##pun
##pur
##pura
##pus
##put
##pv
##pvbđ
##px
##py
##pô
##q
##qa
##qc
##qg
##qh
##qi
##qiang
##qing
##ql
##qlđđ
##qn
##qp
##qq
##qs
##qsdđ
##qt
##qu
##qua
##quan
##que
##quer
##ques
##quest
##quet
##qui
##quier
##quin
##quique
##quist
##quy
##quĩ
##quả
##quốc
##qvist
##qđ
##r
##ra
##rab
##rabbo
##rac
##race
##rach
##rack
##racy
##rad
##rada
##rade
##radio
##rado
##raeme
##rage
##ragon
##rah
##rahman
##rai
##rail
##rain
##raj
##raji
##rak
##raka
##ral
##ram
##rama
##ran
##rana
##ranca
##rance
##rand
##rang
##range
##rani
##rano
##rant
##rao
##rap
##rapat
##rar
##ras
##rassic
##rat
##rata
##rate
##rath
##rati
##ration
##rato
##rator
##ratton
##rau
##raud
##rav
##ravan
##ravat
##raw
##rawi
##ray
##raya
##raz
##rb
##rba
##rbat
##rbe
##rbeek
##rbine
##rbo
##rc
##rce
##rd
##rda
##rden
##rdi
##rdin
##rdo
##rdy
##re
##rea
##read
##reader
##real
##reau
##reb
##rec
##recht
##reck
##reco
##red
##reddy
##redo
##ree
##reen
##reiner
##rek
##rel
##rell
##rella
##relli
##rem
##ren
##rena
##rent
##rep
##report
##rer
##res
##rese
##residential
##ress
##resse
##rest
##ret
##retti
##retto
##reuters
##reuther
##review
##rew
##rex
##rey
##rez
##reza
##rf
##rfan
##rg
##rge
##rgen
##rger
##ri
##ria
##rian
##riana
##rianna
##ric
##rica
##rice
##rich
##rick
##rico
##rid
##rida
##ride
##ridge
##ridium
##rie
##riel
##rien
##rier
##ries
##rif
##rig
##right
##rik
##rika
##ril
##rill
##rim
##rin
##rina
##rine
##ring
##rini
##rino
##rio
##ris
##rise
##rison
##rist
##rit
##rita
##rite
##rith
##rito
##ritz
##rium
##rius
##rivaddhanaprabha
##rix
##riya
##riz
##rizio
##rk
##rka
##rkin
##rl
##rley
##rlow
##rm
##rma
##rman
##rmer
##rn
##rna
##rnas
##rne
##rner
##rney
##rno
##rnomo
##ro
##road
##robo
##roc
##rocco
##rock
##rod
##roj
##rok
##rol
##roll
##rom
##roma
##ron
##rone
##rong
##roni
##ronin
##rono
##roo
##room
##root
##rop
##ror
##ros
##rosa
##rose
##ross
##rossi
##rot
##roth
##roto
##rou
##roughton
##rov
##rova
##row
##roy
##roz
##rp
##rpm
##rr
##rra
##rrell
##rri
##rrie
##rrington
##rro
##rrow
##rs
##rse
##rso
##rt
##rta
##rte
##rtney
##rton
##rts
##rttemberg
##rtz
##ru
##rua
##rud
##rue
##ruk
##rul
##rum
##run
##rung
##runner
##rup
##rus
##rush
##russia
##rut
##ruud
##ruz
##ruồi
##rva
##rvena
##rvin
##ry
##rya
##ryami
##ryl
##ryn
##ryo
##rystia
##ryu
##rz
##rze
##rá
##rát
##rây
##ré
##rê
##rí
##rít
##ríu
##ró
##rô
##rông
##rùm
##rơ
##rất
##rốp
##s
##sa
##saba
##saccharide
##sad
##sada
##saf
##safe
##sah
##sai
##sak
##saki
##sal
##sala
##sale
##sam
##same
##san
##sana
##sand
##sang
##sani
##sano
##sant
##sao
##sap
##sar
##sara
##sari
##sat
##sata
##sato
##sau
##sava
##savanh
##save
##saw
##sawa
##say
##sb
##sbach
##sberg
##sburg
##sbury
##sby
##sc
##sca
##scale
##scan
##scape
##scar
##sch
##sche
##schel
##scher
##schi
##school
##science
##sco
##scope
##screen
##scribe
##script
##sd
##sdale
##se
##sea
##search
##sec
##seco
##security
##see
##sef
##sei
##seki
##sel
##sell
##sen
##seng
##senko
##sense
##seo
##seong
##sep
##ser
##serco
##series
##service
##ses
##set
##sex
##sexual
##sey
##sf
##sford
##sg
##sh
##sha
##shad
##sham
##shan
##share
##shaw
##shchenko
##she
##shed
##shen
##sheng
##shenko
##sher
##shi
##shida
##shield
##shift
##shima
##shin
##shina
##ship
##shir
##shire
##shiro
##shita
##shka
##shkin
##shko
##shkov
##shmi
##sho
##shock
##shop
##shore
##shot
##shov
##show
##shu
##shun
##si
##sia
##sian
##sic
##side
##sie
##sien
##sif
##sight
##sign
##sik
##sil
##sim
##sima
##sin
##sina
##sing
##singer
##sinh
##sio
##sion
##sip
##sir
##siri
##sis
##sit
##site
##sive
##sk
##ska
##skar
##skaya
##ske
##ski
##skin
##skiy
##sko
##skoye
##sky
##sl
##slav
##sler
##sley
##slide
##sm
##sma
##sman
##smart
##sme
##smith
##smt
##sna
##sns
##so
##soft
##sol
##som
##some
##somphone
##son
##sone
##song
##sonic
##sor
##sou
##soud
##soul
##source
##sov
##sp
##spa
##space
##spec
##speed
##sphere
##spira
##spor
##sport
##sports
##spot
##spray
##spring
##sr
##sri
##ss
##ssa
##ssam
##ssama
##ssana
##sse
##ssel
##ssen
##ssier
##ssler
##sso
##sson
##st
##sta
##stad
##stadion
##stadt
##staff
##stag
##stair
##stal
##stall
##stan
##stand
##standing
##star
##start
##stat
##state
##stava
##ste
##stead
##sted
##steel
##stein
##sten
##step
##ster
##sterol
##stic
##stick
##stine
##sto
##stock
##ston
##stone
##stop
##stor
##store
##storm
##story
##stow
##str
##stra
##stract
##strand
##strasse
##strat
##strava
##stre
##stream
##street
##strings
##stro
##strom
##struct
##studio
##sty
##style
##su
##subramaniam
##suco
##suit
##suk
##suke
##suki
##sul
##sultan
##sum
##sumi
##sun
##sung
##sup
##sur
##sure
##sus
##suwan
##sv
##sville
##sw
##swam
##sworth
##sx
##sy
##sya
##sync
##sys
##system
##sz
##szl
##sé
##sản
##sẽ
##số
##t
##ta
##tab
##table
##tac
##taco
##tada
##tag
##tage
##tai
##tail
##tain
##tak
##taka
##take
##tal
##tala
##tale
##talia
##talk
##tam
##tama
##tami
##tan
##tana
##tang
##tani
##tao
##tap
##tar
##tara
##taro
##tas
##tat
##tate
##tation
##taxi
##tay
##taz
##tb
##tc
##tch
##tchaburi
##tco
##td
##te
##team
##tec
##tech
##ted
##tee
##teen
##tega
##tegui
##tein
##tek
##tel
##tell
##tella
##telli
##tem
##ten
##tenberg
##tep
##ter
##tera
##teria
##terra
##ters
##tes
##test
##tet
##tex
##tey
##tf
##tg
##tgt
##th
##tha
##thai
##thal
##tham
##than
##thana
##thanh
##thar
##thavong
##the
##theo
##thep
##ther
##therapy
##thi
##thin
##thip
##tho
##thol
##thon
##thong
##thor
##thorn
##thos
##thu
##thy
##thành
##tháng
##thì
##thông
##thương
##thế
##thời
##thủ
##thực
##ti
##tia
##tian
##tic
##tica
##tice
##tico
##tics
##tie
##tien
##tier
##ties
##tif
##tik
##tika
##til
##tile
##tilla
##tim
##tima
##time
##times
##timo
##tin
##tina
##tine
##ting
##tini
##tino
##tio
##tion
##tional
##tip
##tique
##tis
##tit
##tium
##tiva
##tive
##tivo
##tiếp
##tk
##tkin
##tko
##tl
##tland
##tle
##tler
##tlé
##tm
##tman
##tna
##tner
##to
##today
##tok
##tol
##tom
##toma
##ton
##tone
##too
##tooth
##top
##tor
##tore
##tori
##tos
##toshi
##tot
##tou
##touch
##tour
##tours
##tov
##tova
##town
##toxin
##tp
##tphcm
##tpvttxh
##tq
##tr
##tra
##trac
##track
##traco
##traction
##trade
##tral
##tran
##trang
##trans
##travel
##traveler
##tre
##tree
##trend
##tri
##tric
##trin
##trip
##tris
##trix
##triển
##triệu
##tro
##tron
##trong
##tronic
##trop
##tru
##truck
##trung
##trust
##try
##trên
##trước
##trường
##trở
##ts
##tsch
##tse
##tsev
##tsk
##tsov
##tsu
##tsuko
##tsumi
##tsune
##tt
##tta
##tte
##tten
##tter
##tti
##ttner
##tto
##ttt
##tty
##tu
##tube
##tuc
##tuk
##tul
##tum
##tun
##tune
##tung
##tur
##tura
##ture
##tus
##tuổi
##tv
##tw
##tx
##ty
##tya
##tyl
##type
##tz
##tze
##tài
##té
##tê
##tô
##tăng
##tđ
##tđb
##tđt
##tơ
##tư
##tại
##tổ
##từ
##tỷ
##u
##ua
##ual
##uan
##uana
##uang
##uar
##ub
##uba
##ubai
##ube
##uber
##ubert
##ubf
##ubi
##ubini
##uble
##ubov
##uc
##uca
##ucca
##ucci
##uce
##uch
##ucha
##uche
##ucher
##uchi
##uck
##uco
##ud
##uda
##uddin
##ude
##udi
##udin
##udio
##udo
##ue
##uel
##uen
##uer
##uez
##uf
##uff
##ufik
##ufo
##uga
##ugar
##uge
##uger
##uggie
##ugh
##ughton
##ugu
##uhair
##uhan
##uhu
##ui
##uiel
##uj
##uja
##uk
##uka
##uke
##ukesh
##ukhin
##uki
##uko
##uku
##ul
##ula
##ule
##uli
##ulia
##ulic
##ulin
##ull
##ulla
##ullah
##ullo
##ulo
##ult
##ulus
##um
##uma
##uman
##umba
##umber
##umberto
##ume
##umen
##umi
##umiko
##ummal
##un
##una
##und
##unda
##unde
##under
##undo
##une
##ung
##uni
##unov
##unter
##unu
##uong
##up
##ur
##ura
##urakshak
##ural
##ure
##ures
##uri
##uria
##urin
##urine
##urious
##urkov
##urlington
##uro
##urry
##urs
##urt
##uru
##urus
##ury
##us
##usa
##usain
##usch
##usd
##use
##ush
##ushi
##ushma
##ushman
##usi
##uss
##ussa
##ust
##ustard
##ustda
##uster
##usuf
##usz
##ut
##uta
##ute
##uter
##uti
##utin
##ution
##uto
##utt
##utter
##uv
##uve
##uw
##uwa
##ux
##uy
##uya
##uyên
##uyệt
##uz
##uza
##uzi
##uzzi
##uê
##uôc
##uôi
##uôl
##uôn
##uýnh
##uýp
##uýt
##uận
##uềnh
##uốc
##uối
##uốn
##uốt
##uồi
##uồn
##uồng
##uổi
##uỗi
##uột
##v
##va
##vac
##val
##vall
##van
##vana
##vani
##vant
##var
##vara
##varma
##varo
##vas
##vat
##vb
##vc
##ve
##vec
##ved
##veen
##vel
##vell
##ven
##venpick
##vent
##venture
##ver
##vers
##verse
##vert
##ves
##vet
##vey
##vez
##vf
##vfv
##vh
##vhttdl
##vi
##via
##vic
##vice
##vich
##vico
##vid
##video
##vie
##vier
##viet
##vietnam
##vietnamnet
##view
##vik
##vil
##vilaco
##vill
##villa
##ville
##vin
##vina
##vinash
##ving
##vio
##vip
##vir
##virus
##vis
##vision
##vista
##vit
##vita
##viên
##việc
##việt
##vl
##vm
##vn
##vnd
##vnđ
##vo
##vock
##voi
##voice
##vol
##von
##vong
##vor
##vos
##vp
##vr
##vre
##vs
##vt
##vu
##vv
##vvl
##vy
##và
##vào
##vì
##vô
##vẫn
##về
##với
##vụ
##vừa
##w
##wa
##waco
##wada
##wagen
##wai
##wak
##waki
##wal
##wala
##wald
##walk
##wall
##wan
##wana
##wand
##wang
##wani
##want
##war
##wara
##ward
##ware
##wari
##wart
##wash
##wat
##watch
##water
##wave
##way
##wayne
##wc
##wd
##we
##wear
##web
##wee
##week
##wehr
##wei
##wel
##well
##wen
##wer
##werk
##wers
##west
##wf
##wg
##wh
##white
##wi
##wich
##wick
##wicz
##wide
##width
##wig
##wil
##win
##wind
##wing
##wire
##wise
##wit
##witz
##wl
##wo
##wold
##won
##wong
##woo
##wood
##woot
##wor
##word
##work
##works
##world
##worth
##wp
##wr
##wright
##write
##ws
##wu
##ww
##wyer
##wyn
##wz
##x
##xa
##xanthin
##xay
##xd
##xe
##xen
##xh
##xi
##xia
##xian
##xiang
##xim
##xin
##xing
##xit
##xk
##xki
##xl
##xo
##xp
##xpress
##xps
##xt
##xtan
##xuất
##xx
##xxx
##xxxx
##xxxxxxx
##xy
##y
##ya
##yad
##yah
##yak
##yakov
##yal
##yam
##yama
##yan
##yana
##yang
##yani
##yanov
##yao
##yar
##yas
##yat
##yaz
##yd
##ye
##yen
##yeon
##yeong
##yer
##yev
##yeva
##yin
##ying
##yip
##yk
##yl
##yla
##yle
##ylene
##ylfi
##ylparaben
##ymar
##yna
##yne
##yno
##yo
##yon
##yong
##yono
##yor
##yoshi
##yotr
##you
##young
##yov
##yr
##yria
##ys
##yshev
##yskaya
##yt
##yte
##yu
##yuan
##yuk
##yuki
##yukov
##yun
##yut
##yves
##yz
##yók
##yến
##yền
##yễn
##yện
##z
##za
##zad
##zada
##zadeh
##zai
##zak
##zaki
##zal
##zam
##zan
##zana
##zano
##zar
##zard
##zat
##zawa
##ze
##zek
##zel
##zen
##zer
##zet
##zf
##zh
##zha
##zhan
##zhe
##zhen
##zhi
##zhong
##zhou
##zhu
##zi
##zia
##zic
##zie
##zier
##zik
##zil
##zim
##zin
##zina
##zine
##zio
##zip
##zka
##zky
##zma
##zo
##zola
##zon
##zone
##zoo
##zor
##zov
##zr
##zs
##zu
##zuka
##zuki
##zumi
##zy
##zynski
##zz
##zza
##zzi
##zzo
##zé
##à
##àn
##ành
##ào
##á
##ác
##ách
##ái
##án
##áng
##áp
##át
##áy
##â
##âm
##ân
##âng
##ât
##âu
##ây
##ã
##ãi
##ãnh
##ão
##è
##èle
##èm
##èn
##ène
##ère
##ès
##é
##éo
##ép
##és
##ét
##ê
##êm
##ên
##êú
##ì
##ìere
##ình
##í
##ía
##íc
##ích
##íe
##ín
##ính
##íp
##ít
##ò
##òn
##òng
##ó
##óc
##ón
##óng
##óp
##ót
##ô
##ôi
##ôl
##ôm
##ôme
##ôn
##ông
##ôxít
##ù
##ùa
##ú
##úc
##út
##ý
##ă
##ăc
##ăk
##ăm
##ăn
##ăng
##ăp
##đ
##đa
##đang
##đb
##đc
##đh
##đi
##điều
##điểm
##điện
##đk
##đl
##đn
##đs
##đt
##đánh
##đã
##đó
##đô
##đưa
##được
##đại
##đầu
##đến
##để
##đối
##đồng
##độ
##động
##ĩ
##ũ
##ũn
##ũng
##ơ
##ơi
##ơn
##ơng
##ơr
##ư
##ưng
##ươc
##ươi
##ươl
##ươm
##ươn
##ương
##ước
##ưới
##ướm
##ướng
##ướt
##ườ
##ười
##ườm
##ườn
##ường
##ưởng
##ưỡng
##ượ
##ược
##ượng
##ạ
##ại
##ạn
##ạnh
##ạt
##ả
##ảng
##ảnh
##ảo
##ấ
##ấc
##ấm
##ấn
##ấp
##ất
##ấu
##ấy
##ầ
##ần
##ầng
##ầu
##ầy
##ẩ
##ẩm
##ẩn
##ẩu
##ẩy
##ẫ
##ẫm
##ẫn
##ẫng
##ẫu
##ậ
##ậc
##ậm
##ận
##ập
##ật
##ậu
##ậy
##ắ
##ắc
##ắk
##ắm
##ắn
##ắng
##ắp
##ắt
##ằ
##ằm
##ằn
##ằng
##ẳ
##ẳm
##ẳn
##ẳng
##ặ
##ặc
##ặm
##ặng
##ặp
##ặt
##ẹ
##ẹt
##ẻ
##ẽ
##ế
##ếc
##ếch
##ếm
##ến
##ếp
##ết
##ếu
##ề
##ền
##ềnh
##ều
##ể
##ểm
##ển
##ểu
##ễ
##ễn
##ễnh
##ệ
##ệc
##ệch
##ệm
##ện
##ệnh
##ệp
##ệt
##ệu
##ỉ
##ỉnh
##ị
##ịch
##ịt
##ọ
##ọc
##ọng
##ọp
##ọt
##ỏ
##ỏng
##ố
##ốc
##ối
##ốn
##ống
##ốp
##ốt
##ồ
##ồng
##ổ
##ổi
##ổng
##ỗ
##ộ
##ộc
##ội
##ộng
##ộp
##ột
##ớ
##ớc
##ới
##ớn
##ớng
##ớp
##ớt
##ờ
##ời
##ờng
##ở
##ởn
##ỡ
##ỡm
##ợ
##ợc
##ợi
##ợp
##ợt
##ụ
##ục
##ụp
##ủ
##ủa
##ứ
##ức
##ứu
##ừ
##ử
##ửa
##ửng
##ữ
##ữa
##ững
##ự
##ực
##ựng
##ỳ
##ỷ
##ỹ
0
00
000
001
0011002643148
002
003
004
005
006
007
008
009
01
010
011
012
013
014
015
016
0165
0166
0168
0169
017
018
019
02
020
021
022
023
024
025
026
027
028
029
03
030
031
032
033
034
035
036
037
038
039
04
040
041
043
044
045
046
047
048
049
05
050
051
0511
052
053
054
055
056
057
058
059
06
060
061
062
063
064
065
066
067
068
069
07
070
071
072
073
074
075
076
077
078
079
08
080
081
082
083
084
085
086
087
088
089
09
090
0903
0904
0906
091
0912
0913
092
093
094
095
096
097
098
0989
099
1
10
100
1000
10000
101
102
1024
103
104
105
106
107
108
1080
109
11
110
111
112
113
114
115
116
117
118
119
12
120
1200
121
122
123
124
125
126
127
128
1280
1288
129
13
130
131
132
133
134
135
136
1366
137
138
139
14
140
1400
141
142
143
144
1440
145
146
147
148
149
15
150
1500
151
152
153
154
155
156
157
158
159
16
160
1600
161
162
163
164
165
166
167
168
169
17
170
1700
17025
171
172
173
174
175
176
177
1776
178
1789
179
1792
18
180
1800
1802
181
182
1820
183
184
1841
185
1856
1858
186
1860
1861
1862
1863
1865
1868
187
1870
188
1880
1882
1883
1884
1885
1886
1887
1888
1889
189
1890
1892
1893
1894
1895
1896
1897
1898
1899
19
190
1900
1901
1902
1903
1904
1905
1906
1907
1908
1909
191
1910
1911
1912
1913
1914
1915
1916
1917
1918
1919
192
1920
1921
1922
1923
1924
1925
1926
1927
1928
1929
193
1930
1931
1932
1933
1934
1935
1936
1937
1938
1939
194
1940
1941
1942
1943
1944
1945
1946
1947
1948
1949
195
1950
1951
1952
1953
1954
1955
1956
1957
1958
1959
196
1960
1961
1962
1963
1964
1965
1966
1967
1968
1969
197
1970
1971
1972
1973
1974
1975
1976
1977
1978
1979
198
1980
1981
1982
1983
1984
1985
1986
1987
1988
1989
199
1990
1991
1992
1993
1994
1995
1996
1997
1998
1999
2
20
200
2000
2001
2002
2003
2004
2005
2006
2007
2008
2009
201
2010
2011
2012
2013
2014
2015
2016
2017
2018
2019
202
2020
2021
2022
2023
2024
2025
2026
2027
2028
203
2030
2032
2035
204
2040
205
2050
206
207
208
209
21
210
2100
211
212
213
214
215
216
217
218
219
22
220
22000
221
222
223
224
225
226
227
228
229
23
230
231
232
233
234
235
236
237
238
239
24
240
241
242
243
244
245
246
247
248
249
25
250
2500
251
252
253
254
255
256
257
258
259
26
260
261
262
263
264
265
266
267
268
269
27
270
271
272
273
274
275
276
277
278
279
28
280
281
282
283
284
285
286
287
288
289
29
290
291
292
293
294
295
296
297
298
299
3
30
300
3000
301
302
303
304
305
306
307
308
309
31
310
311
312
313
314
315
316
317
318
319
32
320
321
322
323
324
325
326
327
328
329
33
330
331
332
333
334
335
336
337
338
339
34
340
341
342
343
344
345
346
347
348
349
35
350
351
352
353
354
355
356
357
358
359
36
360
361
362
363
364
365
366
367
368
369
37
370
371
372
373
374
375
376
377
378
379
38
380
381
382
383
384
385
386
387
388
389
39
390
391
392
393
394
395
396
397
398
399
4
40
400
4000
401
402
403
404
405
406
407
408
409
41
410
411
412
413
414
415
416
417
418
419
42
420
421
422
424
425
426
427
428
429
43
430
431
432
433
434
435
436
437
438
439
44
440
441
442
443
444
445
446
447
448
449
45
450
451
452
453
454
455
456
457
458
459
46
460
461
462
463
464
465
466
467
468
469
47
470
471
472
473
474
475
476
477
478
479
48
480
481
482
483
484
485
486
487
488
489
49
490
491
492
493
494
495
496
497
498
499
5
50
500
5000
501
502
503
504
505
506
507
508
509
51
510
511
512
513
514
515
516
518
519
52
520
521
522
524
525
526
527
528
529
53
530
531
532
533
534
535
536
537
538
539
54
540
541
542
543
544
545
546
547
548
549
55
550
551
552
553
554
555
556
557
558
559
56
560
561
562
563
564
565
566
567
568
569
57
570
571
572
573
574
575
576
577
578
579
58
580
581
582
583
584
585
586
587
588
589
59
590
591
592
593
594
595
596
597
598
599
6
60
600
6000
601
602
603
604
605
606
607
608
609
61
610
611
612
613
614
615
616
617
618
62
620
621
622
624
625
626
627
628
629
63
630
631
632
633
634
635
636
637
638
639
64
640
641
642
643
644
645
646
647
648
649
65
650
651
652
653
654
655
656
657
658
659
66
660
661
662
663
664
665
666
667
668
669
67
670
672
673
674
675
676
677
678
679
68
680
681
682
683
684
685
686
687
688
689
69
690
691
692
693
694
695
696
697
698
699
7
70
700
7000
701
702
703
704
705
706
707
708
709
71
710
711
712
713
714
715
716
717
718
72
720
721
724
725
726
727
728
729
73
730
731
732
733
734
735
736
737
738
739
74
740
741
742
743
744
745
746
747
748
749
75
750
751
754
755
756
757
758
759
76
760
761
762
763
764
765
766
767
768
769
77
770
771
772
773
774
775
776
777
778
779
78
780
781
782
783
784
785
786
787
788
789
79
790
791
792
793
794
795
796
797
798
799
8
80
800
8000
801
802
803
804
805
806
807
808
809
81
810
811
812
814
815
816
817
818
82
820
821
824
825
826
827
828
829
83
830
831
832
833
834
835
837
838
839
84
840
841
842
843
844
845
847
848
849
85
850
851
852
853
854
855
856
857
858
859
86
860
861
862
863
864
865
866
867
868
869
87
870
871
872
873
874
875
876
877
879
88
880
881
882
883
885
886
887
888
8888
889
89
890
891
894
895
896
897
898
899
9
90
900
9000
9001
901
90152
903
904
905
906
907
908
909
91
910
911
912
914
915
916
917
918
919
92
920
921
922
924
925
926
927
928
929
93
930
931
932
933
934
935
936
937
938
939
94
940
941
942
943
944
945
946
948
949
95
950
951
952
953
954
955
956
957
958
959
96
960
961
962
963
964
965
966
967
968
969
97
970
971
973
974
975
976
977
978
979
98
980
981
982
983
984
985
986
987
988
989
99
990
991
993
994
995
996
997
998
999
9999
[CLS]
[MASK]
[PAD]
[SEP]
[UNK]
[UNUSED_0]
[UNUSED_100]
[UNUSED_101]
[UNUSED_102]
[UNUSED_103]
[UNUSED_104]
[UNUSED_105]
[UNUSED_106]
[UNUSED_107]
[UNUSED_108]
[UNUSED_109]
[UNUSED_10]
[UNUSED_110]
[UNUSED_111]
[UNUSED_112]
[UNUSED_113]
[UNUSED_114]
[UNUSED_115]
[UNUSED_116]
[UNUSED_117]
[UNUSED_118]
[UNUSED_119]
[UNUSED_11]
[UNUSED_120]
[UNUSED_121]
[UNUSED_122]
[UNUSED_123]
[UNUSED_124]
[UNUSED_125]
[UNUSED_126]
[UNUSED_127]
[UNUSED_128]
[UNUSED_129]
[UNUSED_12]
[UNUSED_130]
[UNUSED_131]
[UNUSED_132]
[UNUSED_133]
[UNUSED_134]
[UNUSED_135]
[UNUSED_136]
[UNUSED_137]
[UNUSED_138]
[UNUSED_139]
[UNUSED_13]
[UNUSED_140]
[UNUSED_141]
[UNUSED_142]
[UNUSED_143]
[UNUSED_144]
[UNUSED_145]
[UNUSED_146]
[UNUSED_147]
[UNUSED_148]
[UNUSED_149]
[UNUSED_14]
[UNUSED_150]
[UNUSED_151]
[UNUSED_152]
[UNUSED_153]
[UNUSED_154]
[UNUSED_155]
[UNUSED_156]
[UNUSED_157]
[UNUSED_158]
[UNUSED_159]
[UNUSED_15]
[UNUSED_160]
[UNUSED_161]
[UNUSED_162]
[UNUSED_163]
[UNUSED_164]
[UNUSED_165]
[UNUSED_166]
[UNUSED_167]
[UNUSED_168]
[UNUSED_169]
[UNUSED_16]
[UNUSED_170]
[UNUSED_171]
[UNUSED_172]
[UNUSED_173]
[UNUSED_174]
[UNUSED_175]
[UNUSED_176]
[UNUSED_177]
[UNUSED_178]
[UNUSED_179]
[UNUSED_17]
[UNUSED_180]
[UNUSED_181]
[UNUSED_182]
[UNUSED_183]
[UNUSED_184]
[UNUSED_185]
[UNUSED_186]
[UNUSED_187]
[UNUSED_188]
[UNUSED_189]
[UNUSED_18]
[UNUSED_190]
[UNUSED_191]
[UNUSED_192]
[UNUSED_193]
[UNUSED_194]
[UNUSED_195]
[UNUSED_196]
[UNUSED_197]
[UNUSED_198]
[UNUSED_199]
[UNUSED_19]
[UNUSED_1]
[UNUSED_200]
[UNUSED_201]
[UNUSED_202]
[UNUSED_203]
[UNUSED_204]
[UNUSED_205]
[UNUSED_206]
[UNUSED_207]
[UNUSED_208]
[UNUSED_209]
[UNUSED_20]
[UNUSED_210]
[UNUSED_211]
[UNUSED_212]
[UNUSED_213]
[UNUSED_214]
[UNUSED_215]
[UNUSED_216]
[UNUSED_217]
[UNUSED_218]
[UNUSED_219]
[UNUSED_21]
[UNUSED_220]
[UNUSED_221]
[UNUSED_222]
[UNUSED_223]
[UNUSED_224]
[UNUSED_225]
[UNUSED_226]
[UNUSED_227]
[UNUSED_228]
[UNUSED_229]
[UNUSED_22]
[UNUSED_230]
[UNUSED_231]
[UNUSED_232]
[UNUSED_233]
[UNUSED_234]
[UNUSED_235]
[UNUSED_236]
[UNUSED_237]
[UNUSED_238]
[UNUSED_239]
[UNUSED_23]
[UNUSED_240]
[UNUSED_241]
[UNUSED_242]
[UNUSED_243]
[UNUSED_244]
[UNUSED_245]
[UNUSED_246]
[UNUSED_247]
[UNUSED_248]
[UNUSED_249]
[UNUSED_24]
[UNUSED_250]
[UNUSED_251]
[UNUSED_252]
[UNUSED_253]
[UNUSED_254]
[UNUSED_255]
[UNUSED_256]
[UNUSED_25]
[UNUSED_26]
[UNUSED_27]
[UNUSED_28]
[UNUSED_29]
[UNUSED_2]
[UNUSED_30]
[UNUSED_31]
[UNUSED_32]
[UNUSED_33]
[UNUSED_34]
[UNUSED_35]
[UNUSED_36]
[UNUSED_37]
[UNUSED_38]
[UNUSED_39]
[UNUSED_3]
[UNUSED_40]
[UNUSED_41]
[UNUSED_42]
[UNUSED_43]
[UNUSED_44]
[UNUSED_45]
[UNUSED_46]
[UNUSED_47]
[UNUSED_48]
[UNUSED_49]
[UNUSED_4]
[UNUSED_50]
[UNUSED_51]
[UNUSED_52]
[UNUSED_53]
[UNUSED_54]
[UNUSED_55]
[UNUSED_56]
[UNUSED_57]
[UNUSED_58]
[UNUSED_59]
[UNUSED_5]
[UNUSED_60]
[UNUSED_61]
[UNUSED_62]
[UNUSED_63]
[UNUSED_64]
[UNUSED_65]
[UNUSED_66]
[UNUSED_67]
[UNUSED_68]
[UNUSED_69]
[UNUSED_6]
[UNUSED_70]
[UNUSED_71]
[UNUSED_72]
[UNUSED_73]
[UNUSED_74]
[UNUSED_75]
[UNUSED_76]
[UNUSED_77]
[UNUSED_78]
[UNUSED_79]
[UNUSED_7]
[UNUSED_80]
[UNUSED_81]
[UNUSED_82]
[UNUSED_83]
[UNUSED_84]
[UNUSED_85]
[UNUSED_86]
[UNUSED_87]
[UNUSED_88]
[UNUSED_89]
[UNUSED_8]
[UNUSED_90]
[UNUSED_91]
[UNUSED_92]
[UNUSED_93]
[UNUSED_94]
[UNUSED_95]
[UNUSED_96]
[UNUSED_97]
[UNUSED_98]
[UNUSED_99]
[UNUSED_9]
a
aa
aaa
aac
aag
aam
aanholt
aap
aaron
aav
ab
aba
abaaoud
ababa
abac
abadi
abass
abate
abb
abba
abbank
abbas
abbey
abbiati
abbot
abbott
abbottabad
abby
abc
abcnews
abd
abdallah
abdel
abdeslam
abdi
abdol
abdu
abdul
abdulaziz
abdulla
abdullah
abdulmutallab
abdulrahman
abe
abed
abedi
abel
abella
abenomics
aber
aberdeen
abg
abhisit
abi
abidal
abidine
abidjan
abigail
abiko
abkhazia
abl
abm
abou
about
above
abra
abraham
abram
abramovic
abramovich
abrams
abrini
abs
abt
abu
abubakar
abuja
abyad
abyan
ac
aca
academic
academy
acapella
acapulco
acb
acbi
acbs
acc
acca
accelerator
accent
access
accessibility
accessories
accor
accord
account
accounting
accu
ace
acecook
aceh
acer
acet
acetaminophen
acetone
acetyl
acfta
achilles
aci
acid
acm
acmecs
acosta
acoustic
acro
acrobat
acruzo
acrylamide
acrylic
acs
act
action
actionaid
actiso
activ
activa
active
activity
actors
acura
acv
ad
ada
adam
adams
adan
adana
adapter
adaptive
adasia
adb
adc
add
addis
address
ade
adebayor
adel
adelaide
adele
adelson
adem
aden
adf
adha
adhd
adi
adidas
adil
adisak
adiz
adjust
adler
adm
admin
administration
administrator
admiral
admiralty
admm
adn
adnan
adnani
ado
adobe
adolf
adp
adr
adrenalin
adrenaline
adreno
adrian
adriana
adriano
adriatic
adrien
ads
adsense
adsl
adu
adul
adulyadej
aduriz
adv
advance
advanced
adventure
adventures
advisor
advisors
advocaat
adware
adwords
adx
ae
aec
aedes
aeg
aegean
aegis
aegypti
aeoi
aeon
aero
aerobic
aeroflot
aeromobil
aeronautic
aerospace
aes
aesa
af
afa
afamily
afar
afari
afc
afd
afellay
aff
affairs
affleck
afg
afganistan
afghan
afghanistan
afi
afif
aflatoxin
afp
afri
africa
african
afridi
afrin
afta
after
ag
aga
again
agar
agarwal
agassi
agath
agbonlahor
age
agency
agent
agera
agf
agger
agifish
agm
agnelli
agnes
agni
agnieszka
agonist
agostinho
agostino
agpps
agr
agra
agri
agribank
agrico
agriseco
agro
ags
aguero
aguilar
aguilera
aguirre
agung
agus
agusta
agustawestland
agustin
agut
ah
aha
ahl
ahllvt
ahllvtnd
ahly
ahlđ
ahmad
ahmadi
ahmadinejad
ahmed
ahmedabad
ahmet
ahn
ahram
ahrar
ai
aia
aic
aichi
aiden
aids
aig
aiib
aikido
ailee
ailen
aim
aimag
aimee
aip
aipa
air
airasia
airblade
airbnb
airbrush
airbus
aircraft
aires
airlander
airline
airlines
airplane
airplay
airpod
airpods
airport
airshow
airway
airways
aisha
aishwarya
aisyah
aj
ajaccio
ajax
ajay
ajc
ajdabiya
aji
ajinomoto
ajit
ak
aka
akamai
akash
akb
akbar
ake
akhenaten
akhmetov
akhtar
aki
akihito
akinfeev
akira
akita
akp
akpom
akram
akrapovic
aksenov
aksyonov
akula
akzonobel
al
ala
alaa
alaba
alabama
aladdin
alain
alam
alamy
alan
alaska
alassan
alaves
alawite
alba
albania
albert
alberta
alberto
albiceleste
albiol
albion
albright
albrighton
albu
album
albumin
alc
alcacer
alcantara
alcaraz
alcatel
alcii
alcoa
alcohol
alderweireld
aldo
aldridge
ale
alec
alegre
aleix
alejandr
alejandro
alek
aleksandar
aleksandr
aleksei
aleksey
aleppo
alert
alessandra
alessandro
alex
alexa
alexander
alexandr
alexandra
alexandre
alexandria
alexandrov
alexei
alexey
alexievich
alexis
alfa
alfano
alfaro
alfie
alfonso
alfred
alfredo
alger
algeria
algerie
algiers
ali
alibaba
alice
alicia
alien
alienware
align
alina
alipay
alisher
alison
alisson
alive
aliyev
alize
aljazeera
alkaloid
alkmaar
all
alla
allah
allahu
allan
allardyce
allegri
allen
allende
alli
alliance
allianz
allicin
allied
alligator
allison
allkpop
allo
alloush
allspace
allure
ally
alma
almagro
almaty
almaz
almeida
almeria
almunia
alo
aloha
alone
along
alonso
alonzo
alp
alpes
alpha
alphabet
alphago
alphanam
alphonse
alpine
alps
als
alsace
alstom
alt
alta
altai
altay
alternative
altidore
altima
altintas
altintop
altiplano
altis
alto
alumin
alumina
alvarado
alvarez
alves
alvin
alwaleed
always
aly
alyssa
alzheimer
alô
am
ama
amadeus
amal
aman
amanda
amano
amaobi
amaq
amar
amara
amari
amata
amateur
amauri
amaze
amazing
amazon
amb
ambani
ambassador
amber
ambient
ambike
ambition
ambrose
ambrosini
ambrosio
amc
amcham
amd
ame
amelia
amer
ameri
america
american
ames
amesbury
amg
ami
amiang
amidan
amiens
amigo
amin
amina
amino
amip
amir
amiri
amis
amit
amiăng
amiđan
amm
amman
ammonia
amn
amo
amoled
amoni
amoniac
amos
amour
amp
ampas
ampatuan
amphetamine
ampli
amply
amr
amraam
amri
amro
ams
amsterdam
amstrong
amti
amur
amway
amy
amyloid
an
ana
anaconda
anadolu
analog
analysis
analytica
analytics
anand
anandi
anastasi
anastasia
anastasiades
anatoli
anatolia
anatoly
anbar
anbico
ancara
ancelotti
anchorage
anco
anct
and
andalucia
andalusia
andaman
ander
anderlecht
anders
andersen
anderson
andersson
andes
andiez
andik
andorra
andrade
andre
andrea
andreas
andrei
andrej
andres
andress
andrew
andrews
andrey
andria
andriy
androgen
android
andromeda
andros
andrzej
andré
andujar
andy
anelka
anfield
angel
angela
angelababy
angeles
angelet
angelia
angelina
angelo
angels
angers
angie
angiêri
angkor
angle
anglo
angola
angry
angus
anh
anichebe
aniekan
animal
animals
animation
anime
animoji
anis
aniston
anita
ankara
ankle
anna
annabelle
annan
annd
anne
annette
annie
anniversary
anoeta
anonymous
anphabe
anqg
ansar
ansari
answer
ant
antalya
antares
ante
antebellum
antei
anten
antey
antg
anthocyanin
anthony
anti
antifan
antigua
antivirus
antlers
antoine
antoinette
anton
antonella
antonia
antonin
antonini
antonio
antonis
antonov
antony
antq
antt
antutu
antv
antwerp
antđ
anupong
anwar
anymore
anz
anzhi
anđt
ao
aoc
aoki
aol
aomori
ap
apa
apache
apartheid
apartment
apatit
apave
apax
apc
apec
apes
apex
apg
aphrodite
api
apink
apo
apocalypse
apoel
apollo
app
apparel
appf
apple
application
applications
applied
apply
apprentice
apps
appstore
april
aprilia
aps
apsara
apt
aptech
aptomat
aq
aqap
aqi
aqim
aqsa
aqsiq
aqua
aquafina
aquaman
aquarium
aquarius
aquila
aquilani
aquino
aquos
ar
ara
arab
arabi
arabia
arabica
arabiya
arafat
aragones
arak
aramco
aranguiz
arap
araq
araujo
araya
arbeloa
arbil
arbor
arc
arce
arch
archdaily
archer
archi
archie
archimede
architects
architecture
archive
archos
archuleta
arctic
ard
arda
ardern
are
area
arema
arena
areola
areth
arevalo
arf
arfa
arg
argan
argentina
argento
arginine
argo
ari
aria
ariadna
ariana
ariane
arias
ariel
arif
arihant
arirang
aris
arish
aristo
ariston
aristotle
ariyana
arizona
arje
arjun
ark
arkadi
arkady
arkansas
arkhangelsk
arleigh
arlington
arm
arma
armada
armand
armani
armata
armenia
armie
armin
armor
armour
arms
armstrong
army
arn
arnaud
arnault
arnautovic
arne
arnold
aron
aronofsky
around
arri
arrival
arrizabalaga
arrow
arroyo
ars
arsal
arsen
arsenal
arsene
arsenic
arseniy
arseny
arshavin
art
artem
artemia
artemis
arteta
artex
arthur
articles
artist
artistry
arts
artur
aruba
arun
arunachal
arv
arya
arập
as
asa
asad
asahi
asamoah
asanzo
asc
ascend
ascent
ascott
asean
asem
asen
asensio
aseptic
asgard
asghar
ash
asha
ashe
ashle
ashley
ashok
ashore
ashraf
ashton
asia
asiad
asian
asiana
asianbookie
asiaone
asif
ask
aslan
asm
asma
aso
asocio
asosai
asp
aspas
aspen
asphalt
aspire
aspirin
asrock
ass
assa
assad
assam
assange
assassin
assessment
asset
assist
assistant
associate
associates
association
assou
assyria
ast
asta
astana
aster
aston
astori
astoria
astra
astrakhan
astrid
astro
asturias
astute
asus
asw
aswad
asx
asxh
asy
at
ata
atacama
atacms
atalanta
atambayev
atanas
ataturk
atc
atd
atelier
aten
atf
atgm
atgt
atgtqg
ath
athen
athena
athens
athletic
ati
atiga
atila
atiso
atisô
ativ
atk
atkins
atkinson
atl
atlant
atlanta
atlantic
atlantis
atlas
atlat
atletico
atlđ
atm
atmos
atnđ
ato
atom
atomic
atp
atr
ats
atsb
atsu
att
atta
attack
attapeu
attapư
attila
attiyah
attp
attrage
attt
atv
atvslđ
atvstp
atvsv
au
aubameyang
auchan
auckland
aucoin
auction
aud
audi
audio
audiophile
audition
audrey
augment
augsburg
august
augusta
augustin
augustine
augusto
aum
aun
aung
aur
aura
aurelio
aureus
aurier
aurora
aus
auschwitz
austen
austin
austra
australia
australian
austria
aut
author
authority
auto
autobiography
autoblog
autocad
autocar
autodesk
autoevolution
autoexpo
automati
automatic
automobile
automotive
autopilot
autopro
autorun
autralia
autumn
aux
auxerre
av
ava
avakov
avalon
avangard
avant
avante
avanza
avast
avatar
avatelecom
avc
ave
aveiro
aven
avenger
avengers
aventador
aventis
avenue
aveo
average
avery
avf
avg
avi
avia
aviation
aviationist
aviator
avic
avicii
avigdor
avika
avis
aviv
aviva
avon
avram
avramovic
avril
avro
avs
avtovaz
aw
awa
awacs
awakens
award
awards
away
awd
awlaki
aws
ax
axe
axel
axio
axit
axít
aya
ayala
ayatolla
aybar
aye
ayew
ayeyawad
aylan
aym
ayman
ayn
ayo
ayoub
ayrault
ayu
ayumi
ayun
ayunpa
ayutthaya
az
azad
azalea
azam
azarenka
azarov
azaz
azerbaijan
azevedo
azhar
azim
aziz
aziziya
azkals
azmi
azov
azpilicueta
aztec
azulgrana
azur
azure
azz
azzam
azzurri
b
ba
bab
baba
babchenko
babel
babis
baby
babylon
bacabank
bacca
bach
bachdim
bachelet
bachelor
back
backdoor
backlit
backstreet
backup
bacolod
bacsinszky
bad
badr
badstuber
bae
baek
baekhyun
baeksang
baengnyeong
bafana
bafta
bagan
bagdad
baggio
baghdad
baghdadi
baghdatis
bagram
baguette
bahadur
bahamas
bahn
bahnar
bahrain
bahram
bahru
baht
baidu
baiji
baikal
baikonur
bailey
bailly
baines
baird
baja
bajaj
bak
bakar
bakayoko
bakel
baker
bakery
baking
bakiyev
bakr
bakraoui
baku
bal
bala
balad
balague
balakrishnan
balance
balbi
baldwin
bale
balenciaga
bali
balikatan
balkan
ball
ballack
ballad
ballantine
ballarat
ballet
ballmer
balmain
balo
balochistan
balon
balotelli
baltic
baltimore
baluchistan
balza
balô
bamako
bamba
bambi
bamboo
ban
banana
bancassurance
band
bandar
bandung
banega
banerjee
bang
bangalore
bangkok
bangkokpost
bangladesh
bank
banker
banking
banknetvn
bankplus
banks
banner
bannon
bao
baonghean
baoviet
baptist
baptista
baptiste
bar
barack
baradar
barak
barbados
barbara
barber
barbie
barbosa
barbuda
barca
barcelona
barclays
barcroft
bardem
bardot
bardsley
barents
barguzin
bari
barie
barker
barkley
barnes
barnett
barnier
barnsley
baron
baroque
barra
barrack
barracuda
barre
barrett
barrier
barrios
barron
barroso
barry
barrymore
bart
bartender
bartoli
bartomeu
barton
bartra
barzagli
barzani
basa
base
based
basedow
basel
basescu
bashar
bashiqa
bashir
basic
basico
basil
basilan
basque
basra
bass
bassett
bassong
basten
basterds
bastia
bastian
bastille
bastion
bastos
basurin
bataclan
bate
bateman
bath
batista
batistuta
batman
batmobile
batshuayi
battambang
battery
battle
battlefield
battleship
baumgart
bautista
bauxit
bauxite
bavaria
baxter
bay
bayer
bayern
bazaar
bazan
bb
bbb
bbc
bbg
bbq
bbt
bc
bca
bcc
bcci
bcg
bch
bci
bcs
bcsđ
bct
bctc
bctn
bcvt
bcđ
bcđtnb
bd
bdtv
be
bea
beach
beacon
beam
bean
bear
beard
beasley
beast
beasts
beat
beatbox
beatles
beatrice
beatrix
beatriz
beats
beatty
beatvn
beau
beauties
beautiful
beauty
beaver
bebe
bec
becamex
beck
beckenbauer
becker
beckham
beckinsale
becks
becquerel
bed
bedford
bee
beechcraft
beeline
been
beer
beethoven
beetle
before
beg
begawan
begin
begiristain
begovic
begum
beh
behavior
behind
behrami
behring
bei
beige
beijing
bein
being
beirut
beit
bek
bekir
bel
bela
belarus
belbek
belfast
belgorod
belgra
belgrade
believe
belinda
belitung
belize
bell
bella
bellamy
belle
bellerin
bellingcat
bello
bells
bellucci
belly
bellydance
belmokhtar
belmont
belo
belotti
belousov
belt
beltran
beluga
ben
benaglio
benatia
benayoun
benchmark
bencic
bend
bender
bendtner
benedict
benedikt
benefit
benelli
benfica
beng
bengal
benghazi
benham
benicio
benign
benin
benioff
benitez
benito
benjamin
benneteau
bennett
bennington
benoit
benson
bent
bentayga
benteke
benthanh
bentley
bento
benz
benzema
benzen
benzene
benzoat
beo
beom
ber
berahino
berbatov
berdych
bere
beret
berezovsky
berezutsk
berg
bergen
berger
bergkamp
bergman
berhad
beriev
bering
berjaya
berk
berkeley
berkshire
berkut
berli
berlin
berlinetta
berlusconi
berman
bermuda
bermudez
bern
berna
bernabeu
bernadette
bernama
bernanke
bernard
bernardeschi
bernardino
bernardo
bernat
bernd
berne
bernhard
bernie
bernstein
berry
bert
bertrand
bes
besiktas
bespoke
besra
besson
best
bet
beta
beth
bethany
bethesda
bethlehem
betis
beto
betsy
bettencourt
better
betty
between
beu
beverage
beverly
bey
beyonce
beyoncé
beyond
bez
bezel
bezos
bf
bfmtv
bgd
bgdđt
bgh
bgk
bgm
bgr
bgtvt
bgđ
bh
bha
bharat
bhavana
bhd
bhl
bhlđ
bhn
bhnn
bhnt
bhp
bhs
bhtdxk
bhtg
bhtgvn
bhtn
bhumibol
bhutan
bhutto
bhv
bhxh
bhyt
bhđc
bi
bia
bianca
bianchi
bianco
bianconeri
bianfishco
biang
biathlon
bibi
bibica
bibo
bic
bich
bicico
bid
bida
bidc
biden
bidrico
bidv
bieber
biegun
biel
bielsa
bien
big
bigbang
bigc
bigelow
biglia
bihar
bike
biker
bikini
bil
bilal
bilbao
bild
bilic
bilirubin
bill
billard
billboard
billiard
billiards
billie
billionaires
billy
bim
bin
bina
binal
bing
bingboong
bingham
binh
bio
biogas
bionic
bios
biotech
biotin
bir
bird
birdman
birds
birke
birkin
birla
birmingham
birth
birthday
bis
bishan
bishkek
bishop
bismarck
bisphenol
bissau
bisuco
bit
bitcoin
bitconnect
bitdefender
bitexco
biti
bitter
bittorrent
biturbo
biwase
bixby
biz
bizlive
bizweb
biên
biêt
biêu
biêủ
biếc
biếm
biến
biếng
biết
biếu
biền
biều
biển
biểu
biễn
biện
biệt
bj
bjarnason
bjc
bjorn
bjp
bk
bka
bkav
bkhcn
bkhđt
bkis
bkl
bks
bl
bla
black
blackberry
blackbird
blackburn
blackett
blackjack
blackpink
blackpool
blackrock
blackstone
blackwater
blade
blair
blaise
blake
blanc
blanchard
blanche
blanchett
blanco
blancos
blank
blanket
blankfein
blao
blasio
blass
blaszczykowski
blatter
blaugrana
blaze
blazer
blazers
blc
blds
ble
bleacher
bleakley
blend
bleu
bleus
blgđ
blhs
blind
blinken
bliss
blitz
blizzard
bllđ
blo
bloc
block
blockchain
blog
blogger
blogspot
blokhin
blom
blonde
blood
bloom
bloomberg
blossom
blouse
blow
blttds
bltths
blu
blue
bluechip
bluechips
blues
bluescope
bluetooth
blumenthal
blunt
blv
blđ
blđtbxh
blốc
bm
bmc
bmd
bmi
bmp
bmpt
bmt
bmw
bnd
bnews
bnhv
bnn
bnnptnt
bnp
bns
bnv
bo
boa
board
boas
boat
boateng
bob
bobber
bobbi
bobby
boc
boca
bochum
bod
body
bodyguard
bodykit
bodysuit
boe
boehner
boeing
boer
bog
bogdan
bogdanov
bogo
bogor
bogota
bohemian
boho
bohusla
boi
boj
bojan
bok
bokeh
boko
bokova
bol
bola
bolasie
bold
boldsky
bolero
boleyn
bolivar
bolivia
bolkiah
bollinger
bollywood
bologna
bolshevik
bolshoi
bolsonaro
bolt
bolton
boléro
bom
bombardier
bomber
bommel
bon
bonaparte
bond
bondarenko
bondarev
bone
bonera
boney
bong
bongda
bongdaplus
bonham
boni
bonita
bonjour
bonn
bonneville
bonnie
bono
bonsai
bonucci
bonus
bony
boo
book
booker
booking
bookmark
books
boom
boomerang
boomsound
boon
boong
boongke
boost
booster
boot
booth
boots
bopha
bor
bora
boracay
bordeaux
border
bored
boredpanda
borei
borey
borg
borges
bori
borini
boris
borisov
borja
born
borneo
borno
boro
boron
borriello
borrowman
borthwic
bortnikov
boruc
borussia
bos
bosch
bosco
bose
bosingwa
bosnia
bosphorus
bosque
boss
boston
bosworth
bot
botafogo
botanic
botnet
botox
botswana
botulinum
bou
bouchard
bouhlel
boulder
boulevard
boumeddiene
boun
bounnhang
bour
bourbon
bourdain
bourget
bourne
bournemouth
bout
bouteflika
boutique
bow
bowen
bower
bowers
bowie
bowl
bowling
box
boxer
boxing
boxster
boy
boyata
boyband
boyd
boyfriend
boyhood
boyko
boyle
boys
boyzone
boz
bozdag
bp
bpa
bpck
bphone
bpkctt
bq
bql
bqlda
bqlrph
bqp
bqt
bqth
br
bra
brabus
brad
bradford
bradley
bradshaw
brady
braga
bragg
brahim
brahimi
brahma
brahmaputra
brahmos
brahms
braille
brain
brake
bran
branch
brand
brandao
brandenburg
brandi
brando
brandon
brands
brandt
brangelina
branisla
branson
branstad
brasil
brasilia
brass
bratislava
braun
braunschweig
brave
bravia
bravo
braxin
braxton
brazil
brca
bre
bread
break
breakdance
breakfast
breaking
breakout
breath
breathe
bree
breedlove
breeze
brega
breitbart
breivik
brembo
bremen
bren
brenda
brendan
brennan
brent
brentford
brescia
brest
brett
brew
brewer
brewster
brexit
brezhnev
brg
bri
brian
bric
brice
brics
bridal
bride
bridge
bridges
bridgestone
bridget
brie
brief
brien
brig
brigde
brigham
bright
brighton
brightside
brigitte
brilliant
brin
bring
brinkley
brio
brisbane
bristol
brit
britain
britannia
british
britney
brito
britt
brittany
britton
bro
broad
broadband
broadcasting
broadcom
broadway
broadwell
brock
brod
brody
brokeback
broken
broker
brolin
brom
bromelain
bromwich
bron
bronisla
bronx
bronze
brook
brooke
brookings
brooklyn
brooks
bros
brosnan
brother
brotherhood
brothers
broward
brown
browne
browning
browse
browser
brozovic
brt
bru
bruce
bruges
brugge
brun
bruna
brunei
bruni
bruno
brunson
brunswick
brunt
brush
brussel
brussels
brutal
bruxelles
bruyne
brvt
bryan
bryant
bryce
brych
bryson
brâu
brúc
bs
bsa
bsc
bsck
bscki
bse
bsgđ
bsi
bsr
bst
bt
bta
btc
btdt
btgpmb
bth
btl
btmc
btmu
btn
btnmt
btob
btp
btr
bts
btt
bttevn
bttm
bttn
btttt
btu
btv
btxh
btđb
bu
bua
bub
bubble
buchanan
bucharest
buck
bucket
buckingham
buckinghamshire
buckley
bucuresti
bud
budapest
buddy
budi
budweiser
bueno
buffalo
buffaloes
buffet
buffett
buffon
buford
bug
bugatti
bugi
buhari
bui
buick
build
building
buk
bukamal
bukit
bul
bulava
bulgari
bulgaria
bulgary
bulger
bulk
bull
bullet
bulletin
bullock
bullpup
bulls
bum
bumblebee
bumerang
bun
bundchen
bundes
bundesliga
bundy
bung
bungalow
bungari
bungee
bunmathan
bunny
bunpimay
buon
bur
burak
buran
burberry
burchett
burdisso
bureau
burevestnik
burg
burger
burgess
burgundy
burhan
buri
buriram
burj
burk
burke
burkhalter
burkina
burn
burning
burnley
burns
burr
burrow
bursaspor
burt
burton
burundi
buryatia
bus
busadco
busan
busby
busch
bush
bushehr
bushel
business
businessinsider
businessweek
busquets
bussiness
busta
but
butina
butland
butler
butt
butter
butterfly
buttner
button
buuren
buv
buy
buyan
buyer
buyten
buzz
buzzfeed
buôn
buông
buôỉ
buýt
buốc
buốt
buồm
buồn
buồng
buổi
buộc
bv
bvdp
bvh
bvhttdl
bvlgari
bvmt
bvn
bvntd
bvqlntd
bvr
bvs
bvsc
bvtv
bvđk
bwf
bx
bxd
bxh
bxl
bxmđ
by
byd
bye
byrne
byron
byt
byul
byung
byzantine
byă
bà
bài
bàn
bàng
bành
bào
bàu
bày
bá
bác
bách
bái
bám
bán
báng
bánh
báo
bát
báu
báy
bân
bâng
bâu
bây
bã
bãi
bão
bè
bèn
bèo
bé
béc
bén
béo
bét
bê
bên
bênh
bêtông
bêu
bì
bìa
bình
bìu
bí
bích
bính
bít
bò
bòn
bòng
bó
bóc
bói
bón
bóng
bóp
bô
bôi
bôlykhămxay
bôm
bôn
bông
bôxit
bù
bùa
bùi
bùn
bùng
bú
búa
búc
búi
búk
bún
búng
búp
bút
bă
băm
băn
băng
băngcốc
băngrôn
bđ
bđbp
bđg
bđkh
bđn
bđs
bđtd
bđtv
bđvhx
bđvn
bĩ
bĩnh
bĩu
bơ
bơi
bơm
bư
bưng
bưu
bươm
bươn
bươu
bước
bướm
bướng
bướu
bường
bưởi
bưởng
bạ
bạc
bạch
bại
bạn
bạo
bạt
bả
bản
bảng
bảo
bảy
bấc
bấm
bấn
bất
bấy
bầm
bần
bầu
bầy
bẩm
bẩn
bẩy
bẫm
bẫng
bẫy
bậc
bận
bập
bật
bậy
bắc
bắn
bắp
bắt
bằm
bằng
bẳn
bẳng
bặm
bặt
bẹ
bẹn
bẹp
bẹt
bẻ
bẽ
bẽn
bẽo
bế
bến
bếp
bết
bề
bền
bềnh
bể
bệ
bệch
bện
bệnh
bệt
bỉ
bỉm
bỉnh
bỉu
bị
bịa
bịch
bịp
bịt
bọ
bọc
bọn
bọng
bọt
bỏ
bỏng
bố
bốc
bối
bốn
bốp
bốt
bồ
bồi
bồn
bồng
bổ
bổn
bổng
bỗ
bỗng
bộ
bộc
bội
bột
bớ
bớc
bới
bớp
bớt
bờ
bời
bờm
bở
bởi
bỡ
bỡn
bợ
bợm
bợt
bụ
bụa
bục
bụi
bụng
bụp
bụt
bủa
bủn
bủng
bứa
bức
bứng
bứt
bừa
bừng
bửng
bửu
bữa
bự
bực
c
ca
caatsa
caballero
cabaye
cabello
cabin
cable
cabral
cabriolet
cac
cacao
cacau
cacbon
cacbonat
caceres
cache
cad
cadena
cadie
cadillac
cadimi
cadivi
cadiz
cadmium
cadovimex
caen
caesar
caexpo
cafe
cafein
caffein
caffeine
café
cagayan
cage
cagliari
cah
cahill
cahn
cai
cairns
cairo
caitlin
caitlyn
caixin
cake
cakir
cal
cala
calabria
calais
calci
calcio
calciomercato
calciopoli
calcium
calculator
calcutta
calderon
caldwell
caleb
caledonia
calendar
calgary
calhanoglu
cali
caliber
calibr
calif
califonia
california
caliphate
calisto
call
calla
callejon
calmette
calo
calorie
calories
calum
calvin
cam
camacho
camaro
cambiasso
cambodia
cambridge
cambrils
camel
cameo
camera
cameron
cameroon
camila
camilla
camille
camorra
camp
campaign
campbell
campell
camphuchia
campina
campos
campuchia
campus
camry
can
cana
canada
canadian
canal
canales
canalis
canalys
canary
canaveral
canađa
canberra
cancelo
cancer
cancun
cand
candice
candida
candle
candreva
candvt
candy
canel
cang
canh
canifa
canio
cannavaro
cannes
cannon
cano
canoeing
canon
cantavil
canterbury
cantho
cantona
canxi
canyon
canô
cao
caosu
cap
capdevila
cape
capella
capello
capita
capital
capitaland
capitol
capo
capone
capoue
cappuccino
capri
capriles
capristo
capsaicin
capsule
captain
caption
captiva
capture
capô
caq
car
cara
caracas
caracciolo
caramel
caramen
carat
caravan
caravelle
carb
carbohydrate
carbohydrates
carbon
carbonero
carbonhydrate
carbs
card
cardi
cardiff
cardigan
cardin
cardio
cardozo
care
career
carens
carey
cargill
cargo
cari
caribbe
caribbean
caribe
caribê
carillon
carina
carl
carla
carletto
carling
carlisle
carlo
carlos
carlsberg
carlson
carlton
carly
carlyle
carmel
carmen
carmona
carnaval
carnegie
carneiro
carney
carnival
caro
carol
carole
carolina
caroline
carolyn
carom
caroten
carotene
carotenoid
carpenter
carpio
carplay
carr
carragher
carrasco
carrefour
carrera
carrey
carribe
carrick
carrie
carrier
carrillo
carrington
carroll
carry
cars
carscoops
carson
carsten
cartagena
carte
cartel
carter
cartier
carton
cartoon
carvajal
carvalho
carver
cas
casa
casablanca
cascade
cascadeur
case
caseamex
casemiro
casey
cash
casilla
casillas
casino
casio
casper
caspi
caspian
cass
cassandra
cassano
cassette
cassidy
cassini
cast
castel
castella
castello
castilla
castillo
casting
castle
castries
castro
castrol
casual
casumina
cat
cata
catalan
catalog
catalogue
catalonia
catalunya
catania
catch
cate
catechin
catenaccio
caterpillar
caters
catfish
cath
cathay
catherine
cathy
catp
catriona
cats
catse
cattermole
catw
catwalk
catx
cau
caucasus
caughtoffside
cause
cavaliers
cavalli
cavani
cave
cavendish
caviar
cavico
cavill
cavusoglu
cax
cay
cayenne
cayetano
cayman
cazeneuve
cazorla
cb
cbbank
cbc
cbcc
cbccvc
cbccvclđ
cbcnv
cbcnvc
cbcs
cbcđ
cbf
cbgv
cbiz
cbn
cbnv
cboe
cbp
cbpg
cbql
cbr
cbre
cbs
cbtt
cbu
cbv
cbvc
cc
ccb
ccc
cccd
ccdi
ccg
cchc
ccht
cci
ccm
ccn
ccq
ccs
cct
cctp
cctthc
cctv
cctvnews
ccv
ccvc
cd
cdc
cdio
cdm
cdma
cdo
cdu
cdđl
ce
ceballos
cebit
cebr
cebu
cec
cech
cecil
cecilia
cedar
cedric
cee
ceh
cel
celac
celeb
celebrity
celerio
celeron
celeste
celia
celik
celine
cell
cello
cellphones
cellular
cellulose
celso
celta
celtic
celtics
cement
cen
cengroup
cenland
cent
centaur
centcom
centenario
centennial
center
centimet
central
centre
cents
century
ceo
cep
cer
ceramic
cerato
cerci
ceres
cerezo
cern
cerro
certificate
certified
cervantes
ces
cesar
cesc
cesena
cesium
cessna
ceta
cf
cfa
cfc
cfda
cfius
cfo
cfr
cfs
cftd
cgc
cgm
cgv
ch
cha
chacha
chachacha
chad
chadli
chae
chaebol
chai
chainsmokers
chakri
chalerm
challenge
challenger
chaly
cham
chamakh
chamberlain
chambers
champ
champa
champagne
champarama
champasak
champion
champions
championship
championships
champlain
chan
chanathip
chance
chanchu
chand
chandler
chandra
chanel
chang
changchun
change
changi
changmin
changwon
chanh
channel
channelnewsasia
chantha
chanyeol
chao
chapecoense
chapi
chaplin
chapman
chapo
chappuis
chapter
char
chardy
charge
charger
charity
charlene
charles
charleston
charlie
charliz
charlotte
charlottesville
charlton
charm
charmvit
charoen
chart
charter
chartered
chase
chassis
chastain
chat
chatbot
chatchai
chateau
chau
chaudhr
chavez
chay
chazelle
chcn
chdc
chdcnd
che
chea
chechnya
check
chee
cheek
cheese
chef
cheikh
chelsea
chelyabinsk
chem
chemezov
chemical
chen
cheney
cheng
chengdu
chennai
chenrop
cheo
cheol
cheonan
cheong
cher
cherchesov
cherif
chern
chernobyl
cherokee
cherry
chery
cheryl
cheryshev
cheshire
chester
cheung
chevrolet
chevron
chevy
chew
cheyenne
chf
chhay
chhum
chi
chia
chiang
chiara
chiba
chibi
chicago
chicharito
chicken
chief
chiellini
chievo
chiffon
chihuahua
chikungunya
child
children
chile
chillout
chilê
chim
china
chinadaily
chinanews
chinatown
chinese
chinfon
chinh
chinn
chinook
chip
chips
chipset
chirac
chirathivat
chirkov
chiron
chittick
chiu
chivas
chivu
chiêm
chiên
chiêng
chiêu
chiêù
chiếc
chiếm
chiến
chiết
chiếu
chiền
chiềng
chiều
chiển
chiểu
chk
chkqt
chlamydia
chlb
chloe
chlor
chloramin
chlorine
chlóe
chnam
chnd
cho
choang
chocolate
choice
chol
cholesterol
cholimex
chompoo
chonburi
chopard
chopin
chopra
chosun
chow
chowdhury
choàng
choán
choáng
choạc
choạng
choảng
chqs
chris
chrissy
christ
christchurch
christensen
christi
christian
christie
christina
christine
christmas
christoph
christophe
christopher
chro
chrome
chromebook
chromecast
chromium
chronicle
chrono
chronograph
chrys
chrysler
chu
chua
chubb
chuck
chui
chul
chulalongkorn
chum
chummal
chun
chung
chungcheong
church
churchill
churkin
chuxing
chuy
chuyen
chuyên
chuyến
chuyền
chuyển
chuyện
chuân
chuôi
chuôm
chuông
chuẩn
chuốc
chuối
chuốt
chuồn
chuồng
chuỗi
chuộc
chuộng
chuột
chxd
chxhcn
chà
chài
chàm
chàng
chành
chào
chày
chá
chác
chái
chán
chánh
cháo
chát
cháu
chávez
cháy
châm
chân
château
châu
chây
chã
chãi
chão
chè
chèm
chèn
chèo
ché
chém
chén
chéo
chép
chét
chê
chêm
chênh
chì
chìa
chìm
chình
chí
chích
chín
chính
chíp
chít
chò
chòe
chòi
chòm
chòng
chó
chóc
chóe
chói
chóng
chóp
chót
chô
chôl
chôm
chôn
chông
chù
chùa
chùi
chùm
chùn
chùng
chùy
chú
chúa
chúc
chúng
chút
chăm
chămpa
chăn
chăng
chĩa
chĩnh
chũ
chũi
chơ
chơi
chơn
chư
chưa
chưng
chương
chước
chướng
chườm
chường
chưởng
chượp
chạ
chạc
chạch
chạm
chạn
chạng
chạo
chạp
chạy
chả
chải
chảnh
chảo
chảy
chấm
chấn
chấp
chất
chấu
chấy
chầm
chần
chầu
chầy
chẩm
chẩn
chẫm
chậ
chậm
chập
chật
chậu
chắc
chắn
chắp
chắt
chằm
chằn
chằng
chẳng
chặn
chặng
chặp
chặt
chẹn
chẹp
chẹt
chẻ
chẽ
chế
chếch
chết
chề
chễ
chệ
chệch
chỉ
chỉnh
chị
chịt
chịu
chọ
chọc
chọe
chọi
chọn
chọt
chỏ
chỏm
chỏng
chốc
chối
chốn
chống
chốt
chồ
chồi
chồm
chồn
chồng
chổ
chổi
chổm
chổng
chỗ
chội
chộn
chộp
chột
chớ
chới
chớm
chớp
chờ
chờn
chở
chởm
chợ
chợt
chụ
chục
chụm
chụp
chụt
chủ
chủng
chứ
chứa
chức
chứng
chừ
chừa
chừng
chử
chửa
chửi
chửng
chữ
chữa
chững
chực
cia
ciara
ciat
ciaz
cib
cibulkova
cic
cie
ciem
cienco
cies
cif
cig
cigar
cii
cil
cilic
cillessen
cim
cincinnati
cinderella
cindy
cine
cinema
cinemax
cineplex
cio
cip
cipm
ciprian
ciputra
cir
circle
circu
circuit
circus
ciro
cirque
cis
cisco
cisse
cissokho
cit
cites
citi
citibank
citic
cities
citigroup
citimart
citizen
citizens
citric
citro
citroen
city
ciudad
civic
civil
ciws
cj
ck
ckc
ckd
ckii
ckps
ckqt
cks
cl
cla
claire
clan
clancy
clap
clapper
clara
clare
clarence
clari
clarin
clark
clarke
clarkson
clash
clasico
class
classbook
classic
clattenburg
claude
claudecir
claudi
claudia
claudio
claus
clay
clayton
clb
clc
clctgt
cle
clean
cleaner
clear
clegg
clement
clenbuterol
cleopatra
cleveland
clever
cleverley
clichy
click
client
cliff
clifford
clijsters
climate
climb
clin
clinic
clinical
clinker
clint
clinton
clip
clipboard
clipper
clippers
cliton
clive
clmv
clo
clock
clooney
cloramin
clorua
close
closed
closer
clostridium
cloud
clover
clp
cls
club
cluj
cluster
clutch
clv
clyde
clyne
cmc
cmcn
cme
cmg
cmhs
cmi
cmit
cmmi
cmnd
cmos
cms
cmt
cmtnd
cn
cna
cnbc
cnblue
cnc
cnch
cnet
cngd
cnht
cnkt
cnlđ
cnn
cnnmoney
cnooc
cnpc
cnqp
cnqsd
cnqsdđ
cnrp
cnsh
cnt
cntt
cnv
cnvc
cnvclđ
cnxh
cny
cnđd
co
coach
coachella
coast
coat
coats
cobalt
coban
cobb
cobham
cobra
coc
coca
cocacola
cocain
cocaine
cochran
cockpit
cocktail
coco
cocobay
coconut
cod
code
codex
cody
coe
coelho
coen
coentrao
coffe
coffee
cofidec
cognac
cohen
cohn
coi
coinbase
coincheck
coindesk
coinmarketcap
coke
col
cola
cold
coldplay
cole
coleen
coleman
colette
colgate
coli
coliform
colin
coll
collagen
collection
colleen
college
collier
collin
collins
collomb
colo
coloccini
cologne
coloma
colombia
colombo
colon
colony
color
colorado
coloros
colosseum
colour
colt
columbia
columbus
colvin
com
coma
comac
coman
combat
combe
combi
combo
comcast
come
comeback
comedy
comex
comey
comfort
comic
comics
coming
comm
command
comment
commerce
commercial
commerzbank
commission
common
commons
commonwealth
commun
communication
communications
community
como
comoros
comp
compa
compact
compal
companies
company
compaore
compaq
compass
competition
comple
complete
complex
composit
composite
compost
compound
compress
compton
compute
computer
computerworld
computex
computing
comscore
con
concacaf
concept
concern
concert
concerto
concorde
concordia
concours
concrete
condensate
condoleez
condotel
confed
confederation
conference
confession
confessions
confidenc
confidential
configure
cong
congluan
congo
congress
conjuring
conmebol
connect
connected
connecticut
connection
connector
connery
connolly
connor
conocophillips
conor
conrad
consadole
console
consortium
constance
constant
constantin
constellation
constrexim
construction
consultant
consulting
consumer
contact
contacts
contador
container
conte
content
contest
continental
continue
continuum
control
controller
convention
conversation
converse
converter
convertible
conway
coo
cook
cooke
cookie
cookies
cooking
cool
cooler
coolpad
coolpix
coong
coop
cooper
coopmart
cop
copa
copacabana
copd
cope
copenhagen
coppa
copper
copperfield
coppola
copy
coquelin
coquerel
cor
coral
corazon
corbis
corbyn
cord
cordoba
cordycep
core
corebanking
corey
coric
corinthians
cork
corker
corluka
corn
cornelius
cornell
corner
cornet
corning
cornwall
corolla
corona
coronado
corp
corporation
corr
correa
correio
corriere
corsa
corsair
corset
corsica
cort
cortana
cortex
cortez
corticoid
corticosteroid
cortisol
coruna
corvette
cory
cos
cosby
cosevco
cosgrove
cosmetics
cosmic
cosmin
cosmo
cosmopolitan
cosmos
cosplay
cost
costa
costume
cote
cotec
coteccons
cotillard
cottage
cotton
could
coulibaly
coulson
coumarin
council
count
countdown
counter
counterpoint
country
countryman
county
coupe
couple
coupon
coupé
cour
courier
course
court
courtney
courtois
coutinho
couture
cov
cove
coventry
cover
cow
cowboy
cowell
cowpens
cox
coóng
cp
cpa
cpc
cph
cpi
cpp
cppcc
cptm
cptpp
cpu
cpxd
cpđt
cq
cqca
cqcsđt
cqnn
cqđd
cqđt
cr
cra
crab
crack
craft
crai
craig
crane
cranston
crash
craven
crawford
crazy
cre
crea
cream
create
creation
creative
creator
credit
creed
creek
crem
crepe
cres
crescent
crespo
cress
creta
crete
crew
cri
cricket
crime
crimea
crimes
crimson
cris
crisci
crisis
crispr
criss
cristian
cristiano
cristina
cristo
cristobal
critical
critics
crm
cro
croatia
croc
croft
croix
crom
crook
crop
croptop
cross
crossfire
crossover
crotone
crouch
crow
crowd
crowe
crowley
crown
crowne
crt
cru
cruise
cruiser
cruises
crunch
crush
cruyff
cruz
cruze
cruzeiro
crv
cry
crypto
crystal
crôm
crưm
cs
csaga
csb
csbv
csc
cscđ
csdl
csg
csgt
cshs
cshsđn
csht
csi
csiro
csis
cska
cskh
cskt
cskv
csl
csm
csmt
csnd
cso
csp
cspccc
csr
css
cssk
cssks
cst
cstc
cstn
csto
cstt
csu
csvc
csvn
csxh
csđt
csđttp
csđttpvmt
ct
ctbto
ctbđ
ctc
ctck
ctcp
ctct
ctd
ctg
ctgt
ctmt
ctn
ctnh
ctqg
ctqlq
ctr
ctrl
cts
cttc
cttg
cttt
ctv
ctx
ctxh
cty
ctđ
ctđc
cu
cua
cuadrado
cuarơ
cub
cuba
cube
cuc
cuellar
cuenca
cuevas
cui
cule
culi
culkin
cullen
cullinan
culottes
culpo
cultural
culture
cumargold
cumberbatch
cumbria
cumming
cummins
cun
cuneyt
cung
cunha
cunningham
cuomo
cuong
cup
cupcake
cupertino
cur
curacao
curcumin
curie
curiosity
curitiba
curran
current
currie
curry
curti
curtis
curve
cushing
cushion
custom
customer
customs
cut
cute
cuv
cuông
cuôr
cuôí
cuốc
cuối
cuốn
cuống
cuồn
cuồng
cuỗm
cuộc
cuội
cuộn
cv
cvn
cvt
cvđ
cw
cx
cyanide
cyanogen
cyanua
cyber
cyborg
cyc
cyclamate
cycle
cyclo
cygnus
cynthia
cyp
cyprus
cyr
cyril
cyrus
cysteamine
cz
czech
cà
cài
càn
càng
cành
cào
càphê
càu
cày
cá
các
cácbon
cách
cái
cám
cán
cánh
cáo
cáp
cát
cátsê
cáu
câm
cân
câp
câu
cây
cãi
céline
césar
cò
còi
còm
còn
còng
có
cóc
cô
côi
côlômbia
côn
công
cù
cùa
cùi
cùm
cùn
cùng
cú
cúc
cúi
cúm
cún
cúng
cúp
cút
căm
căn
căng
cđ
cđcs
cđctvn
cđcđ
cđdc
cđgd
cđhh
cđml
cđsp
cđt
cđv
cđvn
cũ
cũn
cũng
cơ
cơm
cơn
cơtu
cư
cưa
cưng
cưu
cương
cước
cưới
cướp
cười
cườm
cường
cưỡi
cưỡng
cược
cạ
cạc
cạch
cạn
cạnh
cạo
cạp
cạy
cả
cải
cảm
cản
cảng
cảnh
cấm
cấn
cấp
cất
cấu
cấy
cầm
cần
cầu
cầy
cẩm
cẩn
cẩu
cẫng
cận
cập
cật
cậu
cậy
cắc
cắm
cắn
cắp
cắt
cằm
cằn
cẳng
cặ
cặn
cặp
cọ
cọc
cọng
cọp
cọt
cỏ
cỏi
cỏn
cố
cốc
cối
cốm
cống
cốp
cốt
cồ
cồn
cồng
cổ
cổng
cỗ
cỗi
cộ
cộc
cội
cộm
cộng
cộp
cột
cớ
cờ
cở
cởi
cỡ
cỡm
cỡn
cợn
cợt
cụ
cục
cụi
cụm
cụp
cụt
củ
của
củi
củng
cứ
cứa
cứng
cứu
cừ
cừu
cử
cửa
cửu
cữ
cữu
cự
cựa
cực
cựu
d
da
dab
dabaco
dabiq
dac
daca
dad
daddy
dae
daegu
daejeon
daejun
daenerys
daesang
daesh
daesung
daewon
daewoo
dag
dagestan
daghestan
dahl
dahmer
dai
daiabank
daihatsu
daiichi
daikin
daily
dailymail
dailystar
daimler
dairy
daisy
daiwa
dak
dakar
dakota
dal
dalat
dale
daley
dalglish
dali
dalian
dalic
dallas
dalton
dam
damacus
damas
damascus
dame
damen
damian
damien
damon
damrey
damtv
dan
dana
danang
dance
dancer
dancesport
dancing
dane
dang
dangda
dangerous
danh
dani
daniel
daniela
daniele
daniella
danielle
daniels
danijel
danilo
danish
danlait
danley
dann
danny
dante
dantri
danube
danviet
dao
dap
dapa
daphne
dar
dara
daraa
darayya
darby
dare
daredevil
darfur
daria
dario
darius
dark
darkness
darling
darmian
darmstadt
darpa
darren
dartmouth
darul
darussalam
darwin
daryl
das
dash
dassault
dat
data
database
datanla
datc
date
dato
datsun
daughter
davao
dave
davenport
davichi
david
davidson
davies
davika
davines
davis
davos
davutoglu
davydenko
dawaco
dawn
dawson
dax
day
dayana
daydream
days
daytona
db
dbc
dbkttv
dbs
dbsk
dbđv
dc
dcc
dceu
dcl
dcm
dcns
dcs
dct
dd
ddg
ddos
ddr
ddu
ddvn
de
dea
dead
deadline
deadpool
deakin
deal
dean
dear
death
deaura
deawoo
deb
debaltseve
debaltsevo
debbie
debit
debkafile
deborah
debra
debrecen
debuchy
debut
deca
decal
decao
decatur
decibel
decima
decision
decker
deco
decor
dee
deep
deepa
def
default
defence
defender
defense
defoe
defour
degeneres
degree
dehghan
dehli
dehp
dehqan
deir
deja
del
dela
delaney
delaware
delay
dele
delete
delevingne
delfin
delgado
delhi
delivery
dell
della
dello
deloitte
delph
delphin
delta
deluxe
dem
demand
demba
dembele
dementieva
demetrio
demi
demichelis
demo
dempsey
den
deng
dengue
denilson
denim
denis
denise
denisov
deniz
dennis
denso
dentsu
denver
deok
dep
depardieu
department
depay
depor
deportivo
deposit
depot
depp
der
deraa
derby
derbyshire
derdiyok
derek
deripaska
derrick
des
desailly
descendants
deschamp
deschamps
deschanel
desert
design
designer
desire
desk
desktop
desmon
despacito
despi
destination
destiny
destro
details
detective
detox
detroit
deulofeu
deutsche
deutschland
dev
develop
developer
development
devi
device
devices
devil
deviller
devils
devin
devon
devos
dew
dewan
dewey
dex
dexter
df
dfb
dfs
dgc
dgw
dha
dhabi
dhaka
dhc
dhg
dhl
dhs
dht
di
dia
diablo
diaby
diageo
diallo
diamanti
diame
diamond
diamonds
diana
diane
diaries
diario
diarra
diary
diavel
diaz
dic
dicaprio
dich
dick
dickens
dickinson
dickson
didi
didier
die
diego
dielac
dier
diesel
diet
dieter
diezel
diezen
difc
diff
different
dig
digest
digi
digic
digital
digitalglobe
digitimes
digiworld
digne
dignity
dijk
dijon
dijsselbloem
dilma
dilân
dim
dimanche
dimas
dimitar
dimitri
dimitrov
dimon
din
dina
dinamo
dinar
dinesh
dinh
dinner
dino
dinosaur
dion
dione
dior
diouf
dioxide
dioxin
dioxit
diploma
diplomat
direct
direction
director
directx
dirk
dirty
disable
disc
disco
discover
discovery
disease
disk
dislike
disney
disneyland
dispatch
display
displayport
distin
distribution
district
diva
divergent
divide
division
divo
diwali
dixon
diyala
diyarbakir
diêm
diên
diêu
diếc
diếm
diến
diếp
diết
diềm
diều
diểm
diển
diểu
diễm
diễn
diễu
diệc
diệm
diện
diệp
diệt
diệu
dj
django
dji
djibouti
djokovic
djourou
dk
dkny
dkvn
dl
dlg
dm
dmc
dmitri
dmitry
dmytr
dmz
dn
dna
dnbh
dnc
dnepr
dnepropetrovsk
dnipro
dnipropetrovsk
dnnn
dnnvv
dns
dnssec
dntn
dnvn
dnvvn
dnxh
do
doan
doanh
doc
dock
docomo
docs
doctor
doctors
document
documents
dodge
does
dogg
doha
dohc
doherty
doji
dokdo
doklam
doksuri
dolby
dolce
dolgo
dolgopolov
dolgoruky
dollar
dolly
dolores
dolphin
domain
dome
domenech
domenic
domesco
domingo
dominguez
dominic
dominica
dominican
dominik
dominique
domino
domodedovo
don
dona
donal
donald
donatell
donbas
donbass
doncaster
donesk
donestk
donetsk
dong
donga
dongabank
dongfeng
donghae
donilon
donna
donnarumma
donnell
donovan
donskoy
donut
donuts
doodle
dooley
door
doosan
dopamine
doping
doppler
doraemon
doremon
doris
dormund
dornan
dorothy
dorset
dorsey
dortmund
dos
dotcom
douban
double
doug
douglas
douma
doumer
doutzen
dove
dow
down
downey
downing
download
doyle
doãn
dp
dpa
dpi
dpj
dpm
dpp
dpr
dpt
dqc
dqs
dqtv
dr
dracula
draft
drag
dragao
draghi
dragon
dragonfly
dragons
dragunov
drai
drake
dram
drama
drap
draw
draxler
dray
drc
drdo
dre
dream
dreamers
dreamliner
dreams
dreamworks
dresden
dress
drew
dreyfus
drh
drian
dries
drift
drilling
drink
drinkwater
drive
driver
driving
drogba
droid
drone
drop
dropbox
drophead
drt
drukpa
drum
dry
drăng
ds
dsa
dsc
dsca
dsi
dslr
dsp
dsst
dst
dsvh
dsvhpvt
dt
dtek
dtht
dtl
dtnn
dtnt
dtqg
dts
dtt
dtts
du
dua
dual
duarte
dubai
dublin
duc
ducati
duck
duda
dudek
dudley
duerden
duesseldorf
duff
duffy
dugong
dujardin
dujarri
duk
dukakis
duke
dulux
duma
dumas
dumbledore
dumbo
dumex
duncan
dundee
dunford
dung
dunga
dunham
dunk
dunkirk
dunlop
dunn
dunne
dunst
duo
duong
dupont
dur
durango
durant
durban
durham
duritskaya
dushanbe
dusit
dusseldorf
dustin
dutch
duterte
dutton
duty
duy
duyên
duyện
duyệt
duân
duẩn
duẫn
duật
duệ
duối
duỗi
dv
dvb
dvc
dvctt
dvd
dvi
dvmtr
dvorak
dvorkovich
dvsc
dvt
dw
dwight
dwt
dx
dxg
dxomark
dxy
dy
dyachenko
dybala
dyer
dyke
dylan
dyna
dynamic
dynamics
dynamo
dz
dzagoev
dzeko
dzemaili
dzhe
dzhokhar
dzung
dzyuba
dzô
dzũ
dzậy
dzếnh
dà
dài
dàn
dàng
dành
dào
dày
dá
dái
dám
dán
dáng
dánh
dáo
dát
dáu
dáy
dâm
dân
dâng
dâu
dây
dã
dãi
dãn
dãy
dè
dé
déc
dép
dê
dêê
dì
dìa
dìm
dìn
dình
dìu
dí
díaz
dích
dính
díu
dò
dòi
dòm
dòng
dó
dóc
dóng
dô
dôi
dông
dù
dùi
dùng
dú
dúa
dúi
dúm
dút
dăk
dăm
dăng
dđdn
dđđt
dĩ
dĩa
dĩnh
dũ
dũa
dũng
dơ
dơi
dơn
dư
dưa
dưng
dương
dươí
dưới
dường
dưỡng
dược
dượng
dượt
dạ
dạc
dại
dạm
dạn
dạng
dạo
dạt
dạy
dả
dải
dấm
dấn
dấp
dấu
dầm
dần
dầu
dầy
dẫm
dẫn
dẫy
dậm
dận
dập
dật
dậu
dậy
dắc
dắt
dằm
dằn
dằng
dẳng
dặc
dặm
dặn
dặt
dẹo
dẹp
dẹt
dẻ
dẻo
dẽ
dế
dến
dề
dền
dềnh
dể
dễ
dệt
dị
dịch
dịnh
dịp
dịu
dọa
dọc
dọi
dọn
dỏm
dỏng
dốc
dối
dốt
dồi
dồn
dồng
dổi
dỗ
dỗi
dộ
dộc
dội
dộng
dột
dớn
dớp
dời
dờn
dở
dởm
dỡ
dợ
dợt
dụ
dục
dụi
dụm
dụng
dủ
dứ
dứa
dứt
dừ
dừa
dừng
dử
dữ
dự
dựa
dựng
e
ea
eads
eaeu
eagle
eagles
eakar
ear
earhart
earl
early
earnest
earth
eas
east
easter
eastern
eastland
eastlands
eastwood
easy
easyjet
eat
eb
ebank
ebanking
ebay
ebbing
ebd
ebitda
ebola
ebook
eboue
ebrahim
ebrd
ec
ecb
ecc
eccc
ecclestone
echo
echos
eckar
eclipse
ecmo
eco
ecoboost
ecohome
ecoli
ecolif
economic
economics
economist
economy
ecopark
ecosoc
ecosport
ecotec
ecowas
ecstasy
ecu
ecuado
ecuador
eczema
ed
eddie
eddy
edelman
eden
eder
ederson
edf
edgar
edge
edi
edin
edinburgh
edison
edit
edith
edition
editor
edm
edmond
edmonton
edmund
edo
edouard
edu
eduard
eduardo
education
edward
edwards
edwin
ee
eec
eee
eeu
eez
ef
efe
eff
effect
effects
efi
efron
efsf
efta
eg
egcg
egg
ego
egor
egypt
egyptair
ehime
ehome
ehsan
ei
eia
eib
eibar
eich
eicma
eid
eiffel
eight
eileen
ein
eindhoven
einstein
eintrac
eis
eisen
eisenberg
eisenhower
eiti
eiu
ek
eka
ekaterina
ekaterinburg
ekip
ekotto
ekranoplan
el
ela
elaine
elano
elantra
elastin
elba
elbaradei
elbe
elche
eleanor
electra
electric
electro
electrolux
electron
electronic
electronics
elegance
elegant
element
elena
eleni
elephant
eleven
elf
eli
elias
eliasson
elie
elijah
elin
eliot
elip
elisa
elisabet
elisabeth
elise
elite
elitebook
eliza
elizabeth
ella
elle
ellen
ellie
elliot
elliott
ellis
ellison
ellsberg
elly
elm
eln
elneny
elo
elon
elop
elsa
else
elton
elvis
ely
elysee
elysees
elyseé
em
ema
email
emanuel
emanuelson
emarketer
embraer
emenalo
emerald
emergency
emergin
emerson
emery
emil
emile
emilia
emilio
emily
eminem
emirates
emma
emmanuel
emmy
emoji
emotion
emperor
empire
empoli
emporio
emwazi
en
enable
enceladus
enchante
encore
encounter
end
endeavour
endene
ending
endo
endorphin
endorphins
endurance
enduro
energi
energy
enfa
enfield
eng
engadget
engel
engine
engineering
england
english
enhance
enhanced
eni
enigma
enke
ennahda
enni
enough
enquirer
enric
enrique
enrofloxacin
enso
ensure
ent
enter
enterprise
enterprises
entertaiment
entertainment
entrepreneur
entry
env
environment
environmental
envy
enyeama
enzim
enzo
enzym
enzyme
eo
eos
ep
epa
epc
epco
epi
epic
episode
epl
epoch
epoxy
eps
epsom
epson
epstein
eq
equalizer
equatorial
equi
equipe
equity
equus
er
era
erasmus
erawan
erbil
erc
erdem
erdo
erdogan
erekat
eric
erica
erickson
ericsson
erik
erika
eriksen
eriksson
erin
eritrea
ernest
ernesto
ernst
erp
errani
error
ertiga
erwin
es
esa
esc
escala
escalade
escape
esco
escobar
esele
esim
eskimo
esm
esop
esp
espace
espana
espanyol
esperan
espinosa
espinoza
espirit
espn
esport
esports
espresso
esprit
esquire
esrt
ess
esse
essen
essence
essential
essex
essien
est
esta
estadio
estate
este
esteban
esther
estonia
estrada
estrogen
estudiantes
et
eta
etanol
etc
eternal
etf
etfs
eth
ethan
ethanol
ethereum
etheridge
ethernet
ethiopia
ethoxyquin
ethylene
etienne
etihad
eto
eu
eugen
eugene
eugenie
eugenio
eui
eun
eunhyuk
euphrates
eur
eurasia
eureka
euro
eurocham
eurocopter
eurofighter
eurogroup
euromoney
euromonitor
europa
europe
european
europol
eurosport
eurostat
eurovision
eurowindow
eurozone
eusebio
ev
eva
evaldo
evan
evangel
evangelin
evans
eve
evelyn
even
evening
event
ever
everest
everett
evergrande
everland
evernote
everpia
everrich
everton
every
everyday
everything
evfta
evgeni
evgeny
evian
evil
evleaks
evn
evncpc
evnfinance
evngenco
evnhanoi
evnhcmc
evnnpc
evnnpt
evnspc
evntelecom
evo
evolution
evoque
evra
ew
ewan
ewb
ewec
ex
exa
examiner
exc
excalibur
excel
excellence
exchange
exciter
exclusive
exe
executive
exeter
exhibition
exid
eximbank
exit
exiter
exmor
exo
exocet
exotic
exp
expe
expedia
expedition
expendables
experience
experiment
expert
explorer
expo
export
express
ext
extended
extension
extra
extreme
exxon
exxonmobil
exynos
ey
eydison
eye
eyed
eyeliner
eyes
ez
ezeq
ezra
ezzor
ezzur
f
fa
faa
fab
faber
fabian
fabiano
fabianski
fabien
fabinho
fabio
fabius
fabregas
fabric
fabrice
fac
facbook
face
facebook
facebooker
faceid
facelift
facetime
fact
factor
factory
factset
fadil
fagan
fah
fahad
fahasa
fahd
fahmi
fai
faifo
fail
fair
fairfax
fairplay
fairy
faisal
faith
faiz
fajr
fake
fal
falcao
falcon
falcone
falih
falk
falkland
falklands
falko
fall
fallen
falling
fallon
fallout
falls
falluja
fallujah
false
fam
fame
familia
family
familymart
famous
fan
fancam
fanclub
fandi
fandom
fang
fanning
fanny
fanpage
fans
fansipan
fanta
fantastic
fantasy
fanzone
fao
faptv
far
faraday
farage
farah
farc
farfan
fargo
farhad
farhan
faria
farid
faris
farm
farmer
farnborough
faroe
farook
faros
farou
farra
farrell
farrow
fars
fas
fashion
fashionista
faso
fassbender
fast
fastfood
fastgo
fat
fatah
fate
fateh
father
fatih
fatima
fattah
fau
faulkner
faust
fauzi
favorite
favreau
faw
fax
fay
faye
fayette
fayla
fayyad
faz
fazio
fb
fbi
fbnv
fc
fcc
fcn
fd
fda
fdc
fdi
fdp
fe
fealac
fear
fearless
feat
feature
features
fecon
fed
federal
federation
federer
federica
federico
fedex
fedor
fedora
fedorov
feed
feel
feeling
feet
feghouli
fei
feige
feinstein
fekir
fel
feldman
feliciano
felicity
felipe
felix
fellaini
feltman
female
femen
femme
fen
fences
fendi
fenerbahce
feng
fenty
fer
ferdinand
ferenc
fergie
ferguson
fermi
fernand
fernandes
fernandez
fernandinho
fernando
fernández
ferragamo
ferrara
ferrari
ferreira
ferrell
ferrer
ferrero
ferri
ferro
ferry
fes
fest
festival
fethulla
fever
fey
feyenoord
ff
fff
fgfa
fhd
fhm
fhs
fi
fia
fiap
fiard
fiat
fiber
fibervnn
fibonacci
fibro
fico
fiction
fid
fide
fidel
fiditour
field
fields
fiesta
fifa
fifpro
fift
fifty
figaro
figc
fight
fighter
fighting
figo
figuere
figueroa
fii
fiji
fikri
fil
file
files
filip
filipe
filippo
filler
fillet
fillon
film
films
filter
fin
fina
final
finals
finance
financial
finch
find
finder
finding
fine
finger
finish
fink
finn
finnbogason
fino
fintech
fio
fiona
fiorentina
fipronil
fir
fire
fireeye
firefox
firewall
fireworks
firm
firmino
firmware
first
firth
fischer
fish
fisher
fisker
fit
fitbit
fitch
fitness
fitr
fitzgerald
fitzpatrick
five
fivimart
fix
fixed
fk
fl
fla
flac
flag
flagship
flame
flamenco
flamengo
flamingo
flamini
flan
flanagan
flanders
flanker
flappy
flash
flashmob
flat
flavi
flavia
flavonoid
flc
fle
fleet
flegt
fleming
fletcher
fleur
flex
flexicard
flick
flickr
flight
flint
flip
flipkart
flir
flo
float
floor
flor
flora
florence
florent
florentin
florenzi
flores
floria
florian
florida
florua
flour
flow
flower
flowers
floyd
flu
fluminense
fluor
flush
flute
fly
flycam
flydubai
flyer
flying
flynn
fm
fmc
fmcg
fms
fn
fna
fnc
fo
foal
foam
fob
focus
fogh
fognini
fol
folate
folder
foley
folic
folio
folk
foll
follow
fom
fomc
fomin
fomosa
fond
fonda
fone
fong
fonop
fonseca
fonsi
font
fontaine
fonte
fonterra
foo
food
foods
fool
foot
football
for
forbes
force
ford
fore
foreign
forest
forester
forever
forex
fork
forkel
forlan
form
formaldehyde
formaldehyt
format
formol
formosa
formoso
formula
forrest
forrester
forsberg
forster
fort
fortaleza
forte
fortress
fortuna
fortune
fortuner
fortwo
forum
forward
forza
fos
foss
fossil
foster
fosu
foto
fotuner
fou
found
foundation
founder
four
fourfourtwo
fournie
foursquare
fowler
fox
foxconn
foxnews
foxsports
foxtrot
foxx
foy
fp
fps
fpso
fpt
fpts
fr
fra
frac
frame
frames
framework
fran
franc
france
frances
francesca
francesco
franchi
franchise
francis
francisco
franck
franco
francois
francoise
frank
frankenstein
frankfurt
frankie
franklin
franky
frans
franz
fraser
fre
freak
fred
freddie
frederic
frederick
frederik
fredrik
free
freedom
freelancer
freeland
freeman
freestyle
frei
freiburg
freid
frelimo
french
frequency
fresh
freud
freund
frey
fri
frid
friday
fried
friedel
friedman
friedrich
friend
friends
friendship
friesland
friso
fritz
friuli
frog
from
froman
front
frontex
frontier
froome
frosinone
frost
froyo
frozen
fructose
fruit
fry
frédéric
fs
fsa
fsb
fsc
fsi
fsis
fso
ft
fta
ftaap
ftc
ftp
ftse
ftth
ftu
ftv
fu
fubon
fuchs
fuego
fuel
fuentes
fuji
fujifilm
fujii
fujimori
fujimoto
fujimura
fujitsu
fukada
fuku
fukuda
fukuoka
fukushima
ful
fulbright
fulham
full
fullbright
fuller
fullham
fullhd
fulro
fumio
fun
funcinpec
function
fund
funes
fung
funix
funk
funky
funny
fur
furama
furia
furious
further
furu
fury
fusion
fuso
fut
futa
futenma
futsal
future
futures
futuris
fuv
fv
fwd
fx
fyodor
fz
g
ga
gaal
gabbana
gabbiadini
gabi
gabon
gabor
gabriel
gabriela
gabriella
gabrielle
gad
gaddafi
gadhafi
gadot
gael
gaga
gagarin
gago
gai
gain
gaitan
gal
gala
galactic
galacticos
galapagos
galatasaray
galaxy
gale
galicia
galil
galileo
galina
galizia
gall
gallagher
gallardo
gallas
galle
galleria
gallery
galli
galliani
galliano
gallo
gallon
galloway
gallup
galvez
gam
gambia
gambino
gamble
game
gameiro
gameplay
games
gameshow
gaming
gamma
gamuda
gan
gandhi
gang
ganga
gangnam
gangneung
gangster
gangwon
ganh
gao
gap
gar
gara
garage
garay
garcia
garcía
garde
garden
gardens
gardner
gareth
garfield
garland
garmin
garner
garnier
garrett
garrido
garrincha
garros
garry
gartner
garuda
gary
gas
gascoigne
gaspar
gasperini
gasquet
gaston
gate
gates
gateway
gatilov
gatlin
gato
gatsby
gattuso
gatwick
gau
gauck
gaulle
gaulois
gaultier
gauri
gavrilov
gay
gayet
gayle
gaz
gaza
gazeta
gazette
gaziantep
gazmin
gazprom
gazzet
gb
gbagbo
gbp
gbps
gc
gcc
gccn
gchq
gcn
gcnqsd
gcnqsdđ
gcs
gd
gdansk
gdcd
gdck
gddr
gdmn
gdnn
gdp
gdpt
gdqp
gdqpan
gdtx
gdvn
gdđh
gdđt
ge
gea
gear
gede
gee
geek
geekbench
geely
geert
gef
geforce
geisha
geithner
gel
gelatin
gelex
geleximco
geller
gem
gemadept
gemba
gemini
geminids
gemma
gen
genco
gene
general
generale
generali
generation
generic
genesis
geneva
geneve
geng
genie
genisys
genius
genk
genki
gennady
genoa
gent
gentiloni
genting
gentle
gentleman
gentraco
genève
geo
geoff
geoffrey
geographic
geogre
georg
george
georges
georgetown
georgi
georgia
georgina
gepard
ger
gera
gerais
gerald
gerard
gerashchenko
gerasimov
gerber
gerd
gere
gerhard
gerland
germain
german
germanwings
germany
gero
gerrard
gervinho
gestapo
gesture
get
getafe
getting
getty
getz
geum
geun
gex
geylang
gf
gfk
gfs
gfxbench
ggg
gghb
gh
gha
ghad
ghadir
ghali
ghana
ghane
ghani
ghar
ghazi
ghazni
ghe
ghen
ghi
ghibli
ghim
ghita
ghiếc
ghiền
gho
gholam
ghosn
ghost
ghouta
ghpg
ghpgvn
ghraib
ghrelin
ghz
ghè
ghé
ghém
ghép
ghét
ghê
ghì
ghẹ
ghẹo
ghẻ
ghẽ
ghế
ghề
ghềnh
gi
gia
giaccherini
giadinh
giadinhnet
giai
giallorossi
giam
giampaol
gian
giang
gianluca
gianni
giao
gibb
gibbs
gibraltar
gibson
gien
gieo
gif
gift
gifu
gig
giga
gigabit
gigabyte
giggs
gigi
gignac
gijon
gil
gilad
gilani
gilardino
gilbert
gilberto
giles
gill
gillard
gilles
gillett
gillian
gillis
gilmore
gimenez
gina
ginger
gingerbread
gingrich
ginowan
ginter
ginza
gio
gionee
giordano
giorgi
giorgio
giovani
giovanni
giovinco
gioóc
gioăng
giraldo
girard
girl
girlgroup
girls
girona
giroud
gis
gisele
giselle
github
giu
giulia
giuliani
giuliano
giun
giuse
giusepp
giuộc
give
given
givenchy
givral
gixxer
giz
giza
gizmag
gizmodo
già
giàn
giàng
giành
giàu
giày
giá
giác
giám
gián
giáng
giáo
giáp
giâm
giây
giã
giãn
giãy
gié
giê
giêng
giêsu
giò
giòi
giòn
gió
gióng
giót
giô
giôm
giôn
giông
giùm
giú
giúp
giút
giăm
giăng
giũ
giũa
giơ
giơnevơ
giương
giường
giạ
giả
giải
giảm
giản
giảng
giấc
giấm
giấu
giấy
giầu
giầy
giẫm
giẫy
giậm
giận
giập
giật
giậu
giằng
giặc
giặm
giặt
giẻ
giẽ
giếm
giếng
giết
giềng
giễu
giọng
giọt
giỏ
giỏi
giốc
giống
giồng
giỗ
giội
giớ
giới
giờ
giời
giở
giỡn
giụa
giục
giử
giữ
giữa
giựt
gk
gl
gla
glacier
glad
gladbach
gladiator
glam
glamour
glas
glaser
glasgow
glass
glaxosmithkline
glazer
glc
gle
glebova
glee
glei
glen
glenn
glico
glide
glivec
glk
glo
global
globalbeauties
globalgap
globe
globemaster
globo
glock
glonass
glong
gloria
glory
gloss
glover
glow
gls
glt
glu
glucid
gluco
glucosamin
glucose
glutamate
glutami
glutathione
gluten
gluxit
gly
glycerin
glyco
glycogen
glycol
glycolic
glyn
glyphosate
glôcôm
gm
gma
gmail
gmbh
gmc
gmd
gmeiner
gmo
gmobile
gmp
gms
gmt
gna
gnabry
gnp
go
goa
goal
goay
gobear
gobi
goblin
god
goddard
goddess
godfrey
godin
gods
godzilla
goebbels
goes
goethe
goetz
goetze
goffin
gogh
goh
goi
goia
going
gol
golan
gold
goldberg
golden
goldgenie
goldman
goldsilk
goldsmith
goldstein
goldsun
goldview
golf
golfer
goliath
golo
golovin
gom
gomes
gomez
gomis
gon
goncalves
gondola
gone
gong
gonzales
gonzalez
gonzalo
gonzález
goo
good
goodbye
goodison
goodluck
goodman
goodwood
goodyear
google
gook
goong
gopro
gor
goran
gorbachev
gorbatko
gorde
gordon
gore
goretzka
gorilla
gorki
gorky
gorlovka
gorshkov
gorsuch
gos
gosling
gossip
got
gotham
gothenburg
gothic
goto
gottemoeller
gotze
gou
goulart
gould
goulding
gourcuff
gout
gov
government
gox
goòng
gp
gpa
gpbank
gplx
gpmb
gpp
gprs
gps
gpu
gpxd
gq
gr
gra
grab
grabbike
grabcar
grabpay
grabshare
grabtaxi
grace
gracie
grad
grade
grady
graechen
graf
graff
graffiti
graham
grai
gram
grammy
gran
granada
granat
grand
grande
grandmaster
granero
granit
granite
granma
granny
granollers
granqvist
grant
granturismo
grap
graphene
graphic
graphics
graphite
grass
graves
gravity
gray
graz
grazia
graziano
grdp
gre
great
greatest
greaves
gree
green
greene
greenert
greenid
greenland
greenlines
greenpeace
greenspan
greenwald
greenwich
greg
gregg
gregor
gregorio
gregory
greig
gremio
gren
grenada
grenfell
grenoble
greta
grey
greyhound
gri
grid
grie
griezmann
griffin
griffith
griffiths
grigor
grigorovich
grigory
grill
grim
grimm
grimmie
grinch
grindelwald
grip
gripen
gris
grit
gro
groisman
grom
grondona
groningen
groove
gross
grosskreutz
grossman
grosso
ground
group
groupon
grove
grow
growler
growth
groysman
grozny
gru
gruber
grudia
grudinin
grumman
grunt
grushko
gruzia
grze
gs
gsgc
gsht
gsk
gsm
gsmarena
gsp
gsql
gsx
gt
gta
gtb
gtc
gtcc
gtclqg
gtel
gtgd
gtgt
gtn
gtnt
gto
gts
gtt
gtvl
gtvt
gtx
gtđb
gtđt
gu
gua
guadalajara
guadalupe
guaja
guam
guan
guang
guangzhou
guantanamo
guar
guard
guardado
guardian
guardians
guardiola
guarin
guatemala
gucci
gucht
gudmundsson
guedes
guen
guendogan
guerreiro
guerrero
guess
guest
guetta
guevara
gueye
gui
guiana
guide
guido
guil
guild
guillai
guillaume
guillem
guillermo
guimaraes
guinea
guiness
guingamp
guinness
guitar
guitarist
gujarat
guk
gul
gulbis
gulen
gulf
gulfstream
gullit
gulliver
gum
gumi
gun
gundogan
gunma
gunn
gunnar
gunners
gunnlaugsson
gunny
gunther
guo
gupta
gur
gurion
gurkha
guru
gus
gusar
gustaf
gustav
gustave
gustavo
gut
guterres
guti
gutierrez
guttenberg
gutíerrez
guus
guy
guyana
guzan
guzman
guzzi
guốc
guồng
guộc
gv
gvcn
gvgđ
gvmn
gw
gwadar
gwan
gwang
gwangju
gwen
gwis
gwon
gwyne
gx
gy
gyalwa
gyan
gyeong
gyeonggi
gyeongju
gyeongsang
gyeongsangbuk
gyllenhaal
gym
gyo
gyon
gyps
gypsy
gyu
gyun
gà
gài
gàn
gàng
gành
gào
gàu
gá
gác
gái
gán
gánh
gáo
gáp
gát
gáy
gâm
gân
gây
gã
gãi
gãy
gé
générale
géra
gì
gìn
gí
gò
gòn
gó
góa
góc
gói
góp
gót
gô
gôm
gôn
gù
gùi
gú
gút
găm
găng
gđ
gđkt
gđlh
gđtp
gđvh
gđvn
gđyk
gđđh
gũi
gơ
gư
gươl
gươm
gương
gườm
gường
gượng
gạ
gạc
gạch
gạn
gạo
gạt
gả
gải
gảy
gấc
gấm
gấp
gấu
gầm
gần
gầu
gầy
gẩy
gẫm
gẫu
gẫy
gập
gật
gậy
gắm
gắn
gắng
gắp
gắt
gằm
gằn
gặ
gặm
gặp
gặt
gềnh
gỉ
gọi
gọn
gọng
gọt
gỏi
gỏng
gốc
gối
gốm
gồ
gồm
gồng
gổ
gỗ
gộc
gội
gộp
gới
gớm
gờ
gờm
gở
gởi
gỡ
gợi
gợn
gụ
gục
gừ
gừa
gừng
gửi
h
ha
haaretz
haas
habana
habeco
haberturk
habib
habitat
habubank
haccp
hachi
hachiko
hacinco
hack
hackathon
hacker
had
haddad
hadi
hadico
hadid
hae
haeundae
hafer
hafez
hafiz
haftar
hag
hagel
hagl
hague
hagupit
haha
hahn
hai
haider
hailey
haiti
haiyan
haiyang
hajar
haji
hajime
hajizadeh
hajj
hak
hakan
hakim
hal
halab
halal
hale
halep
haley
half
halico
halifax
halim
hall
halldorsson
halle
halley
halloween
hallows
hallstatt
hallyu
halo
halogen
halong
halsey
ham
hama
hamad
hamadeco
hamas
hambantota
hamburg
hamburger
hamdan
hamgyong
hamico
hamid
hamidi
hamilton
hamlet
hammam
hammer
hammers
hammond
hamon
hampshire
hamsik
hamster
hamza
han
hana
hanbok
hanco
hancock
hancorp
hand
handanovic
handelsblatt
handico
handmade
handmaid
hands
haneda
hanel
hang
hangeland
hangouts
hangover
hanh
hani
haniff
hanjin
hank
hanks
hanna
hannah
hannibal
hannover
hanoi
hanoimilk
hanoitourist
hanosimex
hanover
hans
hansen
hanson
hanuman
hanwha
hao
hap
hapaco
hapilon
happen
happiness
happy
happyland
hapro
hapromart
hapulico
haq
haqqani
har
hara
harakat
harald
haram
harare
harasta
harbin
harbor
harbour
hard
harden
harding
hardware
hardwell
hardy
hare
harf
hargreaves
hari
hariri
harish
harlem
harley
harlow
harman
harmon
harmona
harmonica
harmony
harold
harper
harpoon
harri
harrier
harriet
harris
harrison
harry
hart
haru
haruhiko
haruk
harun
haruna
harvard
harvest
harvey
haryana
has
hasaka
hasakah
hasan
hasfarm
hash
hashemi
hashim
hashimoto
hashtag
hasina
haspel
hass
hassan
hastc
hastings
haswell
hat
hatay
hatch
hatchback
hate
hateco
hathaway
hato
hatoyama
hatta
hatton
hattrick
hauer
haute
havana
havard
have
havelange
haven
havre
hawa
hawai
hawaii
hawija
hawk
hawke
hawker
hawkeye
hawking
hawkins
hawthorns
haxaco
hay
hayabusa
hayashi
hayat
hayden
haye
hayek
hayes
hayward
haz
hazard
hazel
hazem
hb
hbb
hbc
hbo
hbs
hbso
hbv
hc
hca
hcb
hcfc
hckt
hcktđb
hcl
hcls
hcm
hcmc
hcsn
hct
hcv
hcđ
hd
hdb
hdbank
hdc
hdd
hdg
hdl
hdmi
hdpe
hdr
hdtc
hdtv
hdv
he
hea
head
headphone
heal
health
healthcare
healthy
hear
heard
hearst
heart
heartbeat
heartbleed
hearts
heat
heath
heather
heathrow
heaton
heaven
heavy
hebdo
hebei
hebrew
hebron
hec
hecta
hector
hedge
hee
heechul
hefner
hehe
hei
heidelberg
heidi
height
heights
hein
heine
heineken
heinrich
heinz
heinze
heirs
heitinga
hel
helen
helena
helene
helga
heli
helicobac
helicopter
helicopters
helino
helio
helios
helium
helix
hell
hellas
hellcat
hellen
hellfire
hello
helm
helmand
helms
helmut
help
helsinki
hem
hemaraj
hemi
hemingway
hemoglobin
hemophilia
hemsworth
hen
henderson
hendrick
hendrix
heng
henin
henley
henna
hennessey
hennessy
henning
henri
henrik
henrique
henry
heo
hep
hepburn
hepza
her
hera
herald
herat
herb
herbalife
herbert
hercules
here
heritage
herman
hermann
hermes
hermini
hermione
hermitage
hermès
hernan
hernandez
hernanes
hernández
hero
heroes
heroin
heron
herpes
herr
herrera
hersh
hertfordshire
hertha
herve
herz
herzegovina
herzog
heskey
hess
hessen
heuer
heung
heus
hewitt
hexa
hey
heydarian
heynckes
heywood
hezbollah
hf
hfc
hff
hfic
hgm
hh
hhc
hhhv
hhs
hht
hhtg
hhtgnv
hhvn
hi
hiace
hib
hicks
hid
hidalgo
hidden
hiddink
hiddleston
hide
hideo
hidro
hien
hierro
hieu
higashi
higgins
higgs
high
highbury
higher
highland
highlander
highlight
highlights
highway
higuain
hihi
hijab
hikaru
hikikomori
hil
hilario
hilary
hilfiger
hill
hillary
hills
hillsborough
hilton
hilux
him
himalaya
himars
himmler
hin
hind
hindi
hindu
hindustan
hingis
hinh
hino
hip
hiphop
hirai
hirano
hiro
hiroshi
hiroshima
hirotak
hiroyuki
hirsch
his
hisham
hishammuddin
histamin
histamine
history
hit
hitachi
hitchcock
hitler
hits
hitzfeld
hiu
hiv
hiê
hiên
hiêu
hiêụ
hiêủ
hiếm
hiến
hiếp
hiếu
hiềm
hiền
hiểm
hiển
hiểu
hiện
hiệp
hiệu
hj
hk
hkbike
hkd
hkphone
hkpđ
hkqt
hkt
hkvn
hl
hla
hlaing
hld
hleo
hlg
hlttqg
hlv
hmc
hmd
hmeimim
hmeymim
hmn
hmo
hms
hmtn
hmông
hn
hnb
hnbvn
hnc
hncc
hnd
hngđ
hnm
hnmo
hnx
ho
hoa
hoan
hoang
hoay
hobart
hobbit
hobbs
hobeika
hoc
hochi
hockey
hodeidah
hodges
hodgkin
hodgson
hoe
hoen
hoeness
hof
hoffenheim
hoffman
hog
hogan
hogwarts
hoi
hokkaido
hol
holbrook
holcim
hold
holden
holder
holding
holdings
hole
holger
holi
holiday
holl
holland
hollande
holli
hollow
holloway
holly
hollyhock
hollywood
holm
holmes
holocaust
hologram
hololens
holstein
holt
holy
holyfield
holywood
hom
home
homecoming
homepod
homestay
homme
homo
homs
hon
honda
honduras
honey
honeycomb
honeywell
hong
hongkong
honjo
honna
honolulu
honor
honshu
hoo
hood
hoodie
hook
hooligan
hoon
hooper
hoover
hop
hope
hopkins
hor
horace
horea
horizon
horizonte
hormon
hormone
hormuz
horn
horner
hornet
horror
horse
horst
horton
hose
hoshi
hosk
hosn
hospital
hospitality
hossain
hossein
host
hostel
hosting
hot
hotboy
hotel
hotels
hotgirl
hotline
hotmail
hotspot
hotspur
hou
houghton
houla
houllier
hour
hours
house
housing
houston
houthi
houthis
hove
how
howard
howe
howedes
howell
howo
hoài
hoàn
hoàng
hoành
hoác
hoán
hoãn
hoét
hoóc
hoăc
hoạc
hoạch
hoại
hoạn
hoạt
hoải
hoản
hoảng
hoảnh
hoắc
hoắm
hoắt
hoằn
hoằng
hoặc
hp
hpc
hpg
hphn
hppc
hpv
hq
hqc
hr
hrc
hristo
hrw
hryvnia
hs
hsbc
hsc
hsd
hsdpa
hsdt
hsg
hsi
hsiang
hsieh
hsiung
hsmt
hspa
hsst
hssv
hstc
hsu
hsx
hsyc
hsđx
ht
htc
htd
htl
htls
htm
html
htnd
htqlcl
htqt
hts
http
https
htv
htvc
htx
htxnn
hu
hua
huan
huang
huanqiu
huateng
huawei
huayra
hub
hubbard
hubble
hubert
hublot
huckab
hud
huda
huddersfield
huddlestone
hudgens
huds
hudson
hue
huey
huffington
huffingtonpost
huflit
hug
hugh
hughes
hugo
hui
hulk
hull
hulu
hum
huma
humala
human
hummels
hummer
humphrey
humphries
humvee
hun
hung
hungari
hungaria
hungary
hunger
hunsen
hunt
huntelaar
hunter
huntington
huntsman
huoai
huong
hur
huracan
hurley
hurricane
hurriyet
hurt
hurun
hus
husky
hussain
hussein
hustle
hut
hutchinson
hutchison
hutech
huth
hutton
huu
huy
huyen
huyndai
huynh
huyên
huyến
huyết
huyền
huyễn
huyện
huyệt
huân
huê
huôi
huých
huýt
huơ
huấn
huẩn
huế
huề
huệ
huống
huổi
huỳnh
hv
hvbp
hvg
hvn
hvnclc
hvs
hwa
hwan
hwang
hwanghae
hwasong
hwayoung
hy
hyaluronic
hyang
hyatt
hybrid
hyde
hyderabad
hydra
hydrat
hydro
hydrocarbon
hydrogen
hydroxy
hye
hyeon
hyo
hyogo
hyomin
hyon
hyori
hyosung
hyoyeon
hyper
hypercar
hyperloop
hypermotard
hypersport
hyperx
hyuk
hyun
hyuna
hyundai
hyung
hyunmoo
hà
hài
hàm
hàn
hàng
hành
hànôịmới
hànộimới
hào
hàu
há
hác
hách
hái
hám
hán
háng
háo
hát
hâm
hân
hâu
hây
hãi
hãm
hãn
hãng
hãnh
hão
hãy
hè
hèn
hé
héc
hécta
héo
hét
hê
hên
hênh
hêrôin
hì
hình
hí
hích
híp
hít
hò
hòa
hòe
hòi
hòm
hòn
hòng
hó
hóa
hóc
hói
hóm
hóng
hóp
hót
hô
hôi
hôm
hôn
hông
hù
hùa
hùi
hùm
hùn
hùng
hú
húc
húng
húp
hút
húy
hý
hăm
hăng
hđ
hđba
hđbt
hđcdgsn
hđct
hđh
hđkt
hđlđ
hđnd
hđnt
hđqt
hđt
hđtd
hđtp
hđts
hđtt
hđtv
hđtđ
hđxx
hđđt
hĩnh
hũ
hơ
hơi
hơn
hơp
hư
hưng
hưu
hương
hươu
hước
hướm
hướng
hường
hưởng
hạ
hạc
hạch
hại
hạm
hạn
hạng
hạnh
hạo
hạp
hạt
hả
hải
hảo
hấn
hấp
hất
hấu
hầm
hầu
hẩu
hẫng
hận
hập
hậu
hắc
hắn
hắt
hằm
hằn
hằng
hẳn
hặc
hẹ
hẹn
hẹp
hẻm
hẻo
hế
hếch
hến
hết
hề
hển
hệ
hệt
hỉ
hỉnh
hịch
họ
họa
học
họng
họp
hỏa
hỏi
hỏn
hỏng
hố
hốc
hối
hốt
hồ
hồi
hồn
hồng
hổ
hổi
hổn
hổng
hỗ
hỗn
hộ
hộc
hội
hộp
hột
hớ
hới
hớn
hớp
hớt
hờ
hời
hờn
hở
hởi
hỡi
hợi
hợm
hợp
hợt
hụ
hục
hụi
hụp
hụt
hủ
hủa
hủi
hủy
hứa
hức
hứng
hừ
hử
hửng
hững
hữu
hực
hựu
hỷ
i
ia
iaaf
iac
iaea
iaf
iago
iai
ialy
ian
iaquinta
iarc
iata
ib
iba
ibaraki
ibc
ibe
iberia
ibiza
ibm
ibn
ibra
ibrahim
ibrahimovic
ibrd
ibs
ibt
ibtimes
ibuprofen
ibvcb
ic
ica
icaew
icahn
icann
icao
icapp
icardi
icbc
icbm
icbvvnvx
icc
icd
icdrec
ice
iceland
icg
ichi
ichikawa
icij
icise
icj
icloud
ico
icom
icon
iconia
icor
icp
icpc
icrc
ics
ict
ictnews
id
ida
idaho
idc
idea
ideas
idecaf
ideguchi
idemitsu
idf
idg
idi
idico
idj
idlan
idlib
idling
idol
idp
idris
idriss
idt
iduna
idv
ie
iea
iec
ied
ieee
ielts
ieng
ieodo
if
ifa
ifad
ifan
ifc
ifeng
iffhs
ifixit
ifrs
ifs
ig
iggy
ighalo
igla
iglesias
igna
ignacio
ignashevich
igor
iguala
iguazu
ihay
iheanacho
ihi
ihs
ii
iia
iihs
iii
iip
iiss
ijc
ik
ike
ikea
iker
ikon
il
ila
ilbo
ile
ilham
illan
illarramendi
illinois
illustrated
ilo
ilya
ilyushin
im
imac
image
images
imagination
imagine
imam
iman
imax
imc
imdb
imei
imessage
imexpharm
imf
img
imiss
immobile
immortal
imo
imogen
imp
impact
impala
imperia
imperial
implant
import
importan
impossible
impreza
impulse
imran
imso
imuzik
imx
in
inada
inbev
inbound
inbox
inc
inca
ince
incentra
inception
inch
incheon
inches
incirlik
income
incredible
incredibles
independence
independent
independiente
indevco
index
indi
india
indian
indiana
indianapolis
indie
indigo
indira
inditex
individual
indo
indochina
indochine
indones
indonesia
indonexia
indoor
indra
industrial
industries
industry
inf
infantino
inferno
infinite
infiniti
infinity
influence
info
infogame
infographic
infographics
infonet
informa
information
infornet
infosec
infosys
infrastructure
ingalls
inglo
ingolstadt
ings
ingushetia
iniesta
initiative
ink
inkigayo
inline
inmarsat
inn
inno
innov
innova
innovation
inoue
inova
inox
input
inquirer
ins
insee
inside
insider
insidious
insight
insights
insigne
inspiration
inspire
inspiron
insta
instagram
install
instant
instargram
institute
institution
instruments
instyle
insulin
insurance
inte
intecom
integrat
intel
intelli
intelligence
intelligent
intenet
inter
interactive
interbrand
intercept
interest
interface
interfax
interferon
internacional
internal
internation
international
internet
interpol
interserco
interstellar
interview
intimex
into
intracom
intraday
intresco
inui
inverter
invest
investment
investments
investor
investors
invincible
invisible
inzaghi
inđônêxia
io
ioan
ioc
iod
iodine
iom
ion
ione
ios
iot
iowa
ip
ipa
ipad
iparking
ipc
ipcc
iphone
ipo
ipod
ipp
ips
ipsard
ipsos
ipswich
iptv
ipu
ipv
iq
iqbal
ir
ira
iraizoz
iran
iraq
irbis
ireland
irene
irfan
irgc
irina
iris
irish
irkut
irkutsk
irma
irna
iron
ironman
irrawaddy
irri
irs
irvine
irving
irwin
irắc
is
isa
isaac
isabel
isabella
isaf
isaiah
isarel
isco
ise
isee
isef
isfahan
ishak
ishi
ishigaki
ishiguro
ishihara
ishii
ishikawa
isi
isil
isis
iskandar
iskander
isla
islam
islamabad
islamiyah
island
islands
ismael
ismail
isna
isner
iso
isoflavone
isp
ispace
israel
iss
issa
issac
issue
istanbul
istomin
isuppli
isuzu
it
ita
italia
italy
itar
itc
itd
ite
item
items
itf
ithriya
itlos
ito
itochu
itpc
its
itsu
itu
itunes
iturup
itv
iu
iucn
iuu
iv
ivan
ivana
ivanka
ivanov
ivanovic
ive
ivf
ivo
ivoire
ivory
ivs
ivy
iwa
iwakuni
iwasaki
iwata
iwatch
iwate
iwobi
ix
ixraen
ixus
iz
izabel
izmir
izumo
izvestia
izza
izzi
iốt
j
ja
jaa
jaafar
jaafari
jaaskelainen
jab
jabal
jaber
jabhat
jabra
jabulani
jac
jacinda
jack
jacket
jackie
jackman
jackpot
jackson
jacksonville
jacky
jacob
jacobs
jacobson
jacqueline
jacques
jacqui
jad
jada
jade
jaden
jae
jaebeom
jaeger
jaejoong
jafar
jafari
jag
jagdish
jagger
jagielka
jaguar
jah
jahan
jai
jailbreak
jaime
jain
jaipur
jairo
jaish
jaitley
jak
jakarta
jake
jakob
jakub
jal
jalal
jalalabad
jalan
jalil
jalili
jalisco
jam
jama
jamaat
jamaica
jamal
jamaluddin
jambon
jame
james
jamie
jamil
jammu
jamon
jan
jana
jane
janeiro
janet
jang
janice
janine
janko
jankovic
janowicz
janssen
janus
januzaj
japan
japanese
japfa
japonica
jar
jara
jarablus
jardim
jardin
jardine
jared
jarosla
jarvis
jas
jasmin
jasmine
jason
jasper
jassim
jassm
jatup
jaua
java
javad
javascript
javelin
javi
javier
jaw
jawad
jawaharla
jaxa
jay
jaya
jayden
jaykii
jaysh
jaz
jazeera
jazz
jbic
jbl
jbs
jc
jcb
jcg
jci
jcpoa
jcs
jd
jdam
je
jea
jean
jeanne
jeans
jeb
jebi
jeddah
jedi
jee
jeep
jeff
jefferies
jefferson
jeffery
jeffrey
jeh
jeis
jeju
jek
jelavic
jelena
jelly
jem
jemaa
jen
jenifer
jenkins
jenkinson
jenna
jenner
jenni
jennie
jennifer
jennings
jenny
jens
jensen
jeolla
jeon
jeonbuk
jeong
jeonju
jer
jeremi
jeremy
jericho
jermain
jermaine
jeroe
jerome
jerry
jersey
jerusalem
jerz
jes
jese
jess
jesse
jessica
jessie
jestar
jesus
jet
jetblue
jetro
jetstar
jetta
jewel
jewelry
jf
jfe
jfk
jfl
jh
jharkhand
jho
ji
jia
jian
jiang
jiangsu
jianlin
jiao
jibril
jica
jie
jihad
jiji
jill
jim
jimenez
jimin
jimmii
jimmy
jin
jindo
jing
jingle
jira
jisoo
jisr
jit
jiu
jive
jiyeon
jj
jk
jl
jll
jmg
jmsdf
jo
joachim
joan
joanna
joanne
joao
joaquin
job
jobar
jobs
joc
jocelyn
jodi
joe
joel
joerg
joey
johan
johann
johanna
johannes
johannesburg
johansson
john
johnathan
johnny
johns
johnson
johnston
johnstone
johor
join
joiner
joint
jojo
jojoba
joker
joko
jokowi
jol
joli
jolie
joll
jollibee
jon
jonah
jonas
jonathan
jones
jong
jonghyun
jonh
jonny
joo
joon
joong
joongang
joplin
jordan
jordi
jorge
jorgensen
jorginho
jos
jose
josef
joseon
josep
joseph
josephine
josh
joshua
josip
joss
josé
jou
jour
jourdan
journal
journey
jovetic
jovi
jovovich
joy
joyce
jp
jpa
jpeg
jpg
jpmorgan
jpy
jr
jrai
js
jsc
jsdf
jt
jtbc
jtc
ju
juan
juanfran
juarez
juba
jubb
jubeir
jubilee
jucker
judas
judd
jude
judge
judi
judit
judo
judy
juergen
juice
juke
jule
jules
juli
julia
julian
juliana
julie
julien
juliet
juliette
julio
julius
jumbo
jump
jumpsuit
jumsuit
jun
juncker
juncture
june
jung
jungle
junichi
junior
juniors
juniper
juno
junsu
jupiter
jupp
juppe
juppé
jura
jurado
jurgen
juri
juro
just
justa
justatee
justice
justin
justine
jut
juun
juve
juventus
jv
jvc
jvevermind
jw
jyj
jyp
jér
jút
jơ
k
ka
kab
kaba
kabila
kabir
kaboul
kabul
kaby
kac
kachin
kaczynski
kad
kadena
kadhafi
kadi
kadyrov
kaen
kaesong
kafe
kafka
kafr
kaga
kagawa
kagoshima
kahl
kahn
kai
kaia
kailash
kaine
kaiser
kaiserslautern
kaity
kaizen
kaka
kakao
kaki
kakuta
kal
kala
kalanick
kalashnikov
kale
kali
kalibr
kalimantan
kalin
kalinic
kaliningrad
kalla
kallstrom
kalma
kalmaegi
kalo
kalou
kalu
kaluga
kalyani
kam
kama
kamal
kamaz
kamchatka
kamel
kami
kamil
kamov
kamp
kampala
kampong
kampot
kamprad
kan
kana
kanagawa
kanak
kanazawa
kandahar
kandal
kane
kang
kangaroo
kangnam
kanna
kano
kanoute
kansai
kansas
kant
kantar
kante
kanto
kanu
kanwa
kanye
kao
kap
kapi
kaplan
kapoo
kappa
kapustin
kar
kara
karabakh
karachi
karagounis
karakayev
karam
karan
karanka
karaoke
karasin
karat
karate
karatedo
karbala
kardashian
kardon
karel
karelia
karen
karenina
kari
karik
karim
karimov
karin
karina
karius
karl
karla
karlie
karlov
karlovic
karlsruhe
karma
karnataka
karno
karo
karofi
karol
karolin
karp
karr
karrar
karrueche
kartapolov
karzai
kas
kasa
kashgar
kashin
kashiwa
kashmir
kashtan
kashyap
kasich
kasim
kasit
kasparov
kasper
kaspersky
kass
kassai
kassig
kat
kata
katana
kate
katerina
katharina
katherine
kathleen
kathmandu
kathrin
kathryn
kathy
katia
katie
katniss
kato
katrina
katsu
katsuya
katun
katy
katz
katê
kauai
kaufman
kaur
kav
kavana
kavin
kavkaz
kawa
kawada
kawai
kawano
kawasaki
kawashima
kawin
kay
kaya
kayak
kayla
kayson
kaz
kaza
kazakh
kazakhstan
kazan
kazi
kazu
kazuhiro
kazuo
kb
kbang
kbc
kbiz
kbnn
kbs
kbt
kc
kcal
kcb
kcc
kcht
kcn
kcna
kcnc
kcx
kd
kdc
kddi
kdf
kdh
kdl
kdtm
kdtv
ke
kean
keane
keangnam
keanu
kearney
keating
keaton
keb
kedah
kee
keegan
keen
keenan
keep
kegel
kei
keidanren
keira
keisuke
keita
keith
kel
kelantan
kelbin
kelechi
keller
kelley
kellogg
kelly
kelsey
kelvin
kem
kemerovo
kempo
ken
kendall
kendra
kendrick
kenedy
keng
kenichi
kenji
kennedy
kenneth
kenny
kensington
kent
kenton
kentucky
kenya
kenyatta
kenzo
keo
kepa
kepler
keppel
ker
kerala
keratin
kerber
kerch
keri
kern
kernel
kerr
kerrey
kerry
kerzhakov
kesha
kesley
ket
ketamin
ketamine
ketsana
keukenhof
keun
kevin
kevlar
key
keyboard
keylogger
keylor
keynes
keyone
keys
keystone
kf
kfc
kfw
kgb
kgi
kgvx
kh
kha
khabarovsk
khabib
khai
khairul
khaisilk
khal
khaled
khalid
khalifa
khalil
kham
khamenei
khamis
khampha
khan
khanasser
khang
khanh
khao
khar
kharkiv
kharkov
khartoum
khashoggi
khat
khatib
khatoco
khau
khay
khcn
khe
khedira
khelaifi
khem
khen
kheo
kherson
khhgđ
khi
khieu
khinh
khiêm
khiên
khiêng
khiêu
khiến
khiếp
khiết
khiếu
khiển
khiễng
khkt
khloe
khmeimim
khmer
kho
khoa
khoai
khoan
khoang
khoanh
khobragade
khodorkovsky
khoe
khoeo
khoevadep
khom
khomeini
khorasan
khosrowshahi
khoàng
khoác
khoái
khoán
khoáng
khoát
khoáy
khoèo
khoét
khoăn
khoải
khoản
khoảng
khoảnh
khoắn
khoắng
khrizantema
khrushchev
khtc
khtn
khu
khung
khurshid
khuy
khuya
khuynh
khuyên
khuyếc
khuyến
khuyết
khuyển
khuân
khuâng
khuây
khuê
khuôn
khuất
khuấy
khuẩn
khuỷu
khxh
khyber
khz
khà
khàn
khàng
khá
khác
khách
khái
khám
khán
kháng
khánh
kháo
khát
kháu
khâm
khâu
khè
khèn
khé
khén
khéo
khép
khét
khê
khênh
khêu
khì
khí
khía
khích
khít
khò
khó
khóa
khóc
khóe
khói
khóm
khô
khôi
khôn
không
khù
khùng
khú
khúc
khăm
khăn
khăng
khđt
khơ
khơi
khơme
khư
khưu
khươl
khương
khướt
khướu
khạc
khạng
khạo
khạp
khả
khải
khảm
khảnh
khảo
khấm
khấn
khấp
khất
khấu
khầu
khẩm
khẩn
khẩu
khẩy
khắc
khắn
khắp
khắt
khẳng
khẹc
khẹt
khẻ
khẽ
khế
khều
khểnh
khệ
khệnh
khệt
khỉ
khỉnh
khị
khịa
khịt
khọt
khỏ
khỏa
khỏe
khỏi
khố
khốc
khối
khốn
khống
khổ
khổng
khộp
khớp
khờ
khởi
khụ
khục
khụy
khủng
khủy
khứ
khứa
khứu
khừng
khử
khựng
ki
kia
kiatisak
kiatisuk
kichi
kick
kickboxing
kicker
kickstarter
kid
kidd
kidman
kido
kids
kienlong
kienlongbank
kieran
kiessling
kiev
kiir
kiki
kiko
kil
kilauea
kilimanjaro
kilis
kill
killed
killer
killing
kilo
kilogam
kilogram
kilomet
kiloton
kilôgam
kilômét
kim
kimberley
kimberly
kimeng
kimmel
kimmese
kimmich
kimono
kimura
kin
kinabalu
kind
kinder
kindle
kinect
king
kingdom
kings
kingsley
kingsman
kingston
kinh
kinhtedothi
kinney
kinoshi
kinshasa
kinzhal
kios
kiot
kip
kiraly
kirby
kirch
kirchner
kiri
kirilenko
kirill
kirin
kirk
kirkuk
kirov
kirsten
kirsty
kis
kishida
kislyak
kiss
kissinger
kist
kit
kita
kitagawa
kitakyushu
kitazawa
kitchee
kitchen
kitco
kitkat
kito
kitty
kitô
kiwi
kiêm
kiên
kiêng
kiêu
kiếm
kiến
kiếp
kiết
kiếu
kiềm
kiền
kiềng
kiều
kiểm
kiển
kiểng
kiểu
kiễ
kiệm
kiện
kiệt
kiệu
kiốt
kj
kk
kkt
kktck
kl
kla
klaas
klang
klara
klass
klaus
klavan
klay
kle
klein
klf
klgd
klim
klimkin
klimov
klinsmann
klintsevich
klitschko
klm
klo
klong
kloop
klopp
klose
kloss
klqg
kls
klub
kluivert
klum
klđt
km
kn
knight
knightley
knights
kno
knock
knorr
knot
know
knowles
knox
kns
kntc
knxk
ko
koalits
kob
kobane
kobani
kobayashi
kobe
koch
kochi
kodak
kodo
koeman
koenigsegg
kofi
kofman
kogalymavia
koh
kohei
kohl
kohler
kohlschreiber
koi
koica
koichi
koichiro
koike
koizumi
koji
kojima
kok
kokang
koke
koko
kokorin
kol
kolarov
kolasinac
koleos
kolinda
kolkata
kolo
kolomoisky
kom
koma
komatsu
komeito
komi
kommersant
komodo
komorowski
kompany
kompong
komsomol
komsomolsk
komsomolskay
kon
kona
konashenkov
kondogbia
kone
kong
konishi
kono
konoplyanka
konovalov
konrad
konstantin
konstantinov
konta
kontum
koo
kook
kool
kop
koppu
kor
koran
kore
korea
koreaboo
korean
korn
kornet
koro
korolev
korotchenko
korotk
kors
koruna
koryo
kos
kosachev
kosan
koscielny
kosovo
kospi
kost
kostas
kot
kota
kotex
koto
kotobuki
kotra
kou
kouachi
kouch
koulibaly
koum
kournikova
kourou
kourtney
kouyate
kova
kovac
kovacic
koval
kovalevskaia
kovind
koz
kozak
kozhin
kp
kpa
kpi
kpk
kpl
kpmg
kpop
kprf
kpă
kq
kqkd
kr
kra
krabi
kraft
krai
kraisorn
kraken
krakow
kramaric
kramatorsk
kramer
kranjcar
kras
krasic
krasno
krasnodar
krasnoyarsk
kratie
kraus
kre
krel
krem
kremli
kremlin
kret
kreu
krg
kri
kring
kris
krishna
krist
krista
kristen
kristian
kristin
kristina
kristy
kritenbrink
krkic
kro
kroenke
kroes
kroger
krona
krone
krong
kroong
kroos
kru
krug
kruger
krul
kruse
kry
krychowiak
krylov
krystal
krêl
krông
ks
ksa
ksb
kseni
ksh
ksnd
ksndtc
ksnk
ksor
kss
kst
ksttx
ksv
ksvkl
ksđt
ksơr
kt
ktb
ktc
ktcn
kths
ktm
ktn
ktnn
ktnt
kto
ktqd
ktqt
kts
ktstq
ktt
ktth
kttn
kttt
ktttx
kttv
kttđ
ktv
ktx
ktxh
ktđ
ktđt
ku
kuala
kuan
kuang
kub
kuban
kubi
kubinka
kubo
kubota
kucherena
kuching
kuchma
kuczynski
kudlow
kudrin
kuin
kuipers
kuk
kul
kulakov
kum
kuma
kumamoto
kumar
kumgang
kumho
kumite
kumsusan
kun
kunan
kunar
kunashir
kunduz
kung
kungfu
kunio
kunis
kuo
kupffer
kur
kura
kurash
kurd
kurdi
kurdistan
kurganets
kuri
kuril
kurkova
kurman
kuro
kuroda
kursk
kurt
kurtulmus
kuru
kurz
kurzawa
kusa
kush
kushner
kuszczak
kut
kutcher
kute
kuwait
kuweires
kuyt
kuzmin
kuznetsov
kuznetsova
kuốp
kv
kva
kvitova
kvpt
kw
kwa
kwak
kwakwa
kwan
kwang
kwangmyongsong
kwh
kwid
kwok
kwon
kwong
ky
kyat
kyaw
kye
kyeong
kyi
kyiv
kyle
kylian
kylie
kymco
kymdan
kyo
kyocer
kyodo
kyoei
kyong
kyoto
kyrgios
kyrgyzstan
kyu
kyuhyun
kyum
kyun
kyung
kyushu
kách
kè
kèm
kèn
kèo
ké
kém
kén
kéo
kép
két
kê
kênh
kêu
kì
kìa
kìm
kình
kí
kích
kín
kính
kíp
kít
kô
kôn
kông
ký
kđclgd
kđt
kđtm
kđtmtt
kĩ
kơ
kạn
kần
kẹ
kẹo
kẹp
kẹt
kẻ
kẻng
kẽ
kẽm
kế
kếch
kết
kề
kềm
kền
kềnh
kều
kể
kệ
kệch
kỉ
kỉnh
kị
kịch
kịp
kịt
kỳ
kỷ
kỹ
l
la
laachraoui
lab
label
labeouf
labo
laboratories
laboratory
labrador
labs
lac
lacazette
lacetti
lacoste
lacroix
lactalis
lactic
lacto
lactobacillus
lactose
lad
lada
ladakh
lade
laden
ladies
lady
laetitia
laf
lafayette
laferrari
lag
lagarde
lagerfeld
lagi
lago
lagoon
lagos
laguna
lahm
lahore
lahouaie
lai
lak
lake
lakers
lakeside
lakhdar
lakshmi
lala
lallana
lam
lamar
lamb
lambert
lamborghini
lambretta
lamela
lampard
lampedusa
lamy
lan
lana
lancashire
lancaster
lance
lancer
lancet
land
landmark
landon
lane
lang
langbiang
lange
langkawi
langley
language
lanh
lanka
lanta
lantern
lanvin
lanzini
lao
lap
laporta
laporte
lapse
laptop
lar
lara
large
larijani
larisa
larissa
larry
lars
larsen
larson
larsson
larue
las
lasalle
laser
lashkar
lasik
lass
lassen
last
laszlo
lat
latakia
late
latif
latin
latina
latinh
latitude
lattakia
latte
latvia
lau
lauder
lauderdale
laudrup
launch
launcher
laura
laurel
lauren
laurence
laurent
laurentiis
laurie
lausanne
lautner
lava
laval
lavender
lavenue
laver
lavezzi
lavie
lavigne
lavrent
lavrov
law
lawrence
lawrenson
lawson
lay
layer
layout
lazada
lazar
lazaro
laze
lazer
lazio
lb
lc
lcd
lcg
lcm
lcs
ld
ldg
ldl
ldp
ldr
le
lea
lead
leader
leaders
leadership
leading
leaf
league
leah
leahy
leak
lean
leandro
leanne
leap
learn
learning
leather
leauge
leave
lebanon
lebedev
lebron
lecce
lech
lecithin
leclerc
led
ledger
lee
leeds
leeteuk
left
leg
lega
legacy
legal
leganes
legend
legends
legging
legia
legion
lego
lehman
lehmann
lei
leica
leicester
leigh
leighton
leila
leipzig
leisure
leiva
leixoes
lek
lem
lemar
lemon
lemonade
len
lena
lendl
leng
lengsavad
lenin
leningrad
lennon
leno
lenovo
lens
lenta
leo
leon
leona
leonard
leonardo
leone
leong
leonid
leonov
leopard
leopold
leopoldo
lep
leptin
leroy
les
lesbian
lesbos
lescott
leslie
lesotho
leste
lester
let
letizia
leto
letta
letter
letters
leu
leung
lev
levant
levante
level
lever
leverkusen
levi
levin
levine
levinson
levitt
levy
lew
lewandowski
lewin
lewinsky
lewis
lex
lexi
lexington
lexus
leyen
leyte
leyva
lf
lg
lgbt
lgc
lh
lhasa
lhc
lhg
lhh
lhhvn
lhp
lhpn
lhpnvn
lhq
lhs
lhtn
li
lia
liam
lian
liang
liao
liban
libera
liberation
liberia
libero
libertadores
liberty
libi
libor
library
libre
libya
libération
libăng
license
lich
lichtsteiner
licogi
lidar
lideco
lie
lieberman
liechtenstein
liege
lien
lienviet
lienvietbank
lies
lifan
life
lifebuoy
lifehack
lifenews
lifepro
lifestyle
liffe
lifsap
lig
liga
light
lighthizer
lighting
lightning
lights
lightstick
ligue
like
liksin
likud
lil
lilama
lili
lilian
liliane
lilipaly
lille
lilly
lilo
lily
lim
lima
lime
limit
limited
limo
limousine
lin
lina
lincoln
lincolnshire
lind
linda
lindbergh
lindegaard
lindelof
lindsay
lindsey
lindt
line
lineker
lines
ling
linga
lingard
linh
link
linkedin
linkin
links
linoleic
linux
lion
lionel
lions
lionsgate
liow
lip
lipid
lipit
lipo
lipoprotein
lippert
lippi
lips
lipstick
lipton
liquid
lira
lisa
lisandro
lisbon
lisicki
list
listen
listeria
liszt
lit
lite
litecoin
lithium
lithuania
litovk
little
litva
litvinenko
liu
liv
live
livejournal
liveleak
lively
livermore
liverpool
lives
livescience
liveshow
livestream
livestrong
living
livingston
livni
livorno
liwa
lix
lixil
liz
liza
lizard
lizzie
lizzy
liê
liêm
liên
liêng
liêu
liêụ
liếc
liếm
liến
liếng
liếp
liềm
liền
liều
liểng
liễm
liễn
liễu
liệm
liện
liệng
liệp
liệt
liệu
ljajic
lju
ljubljana
ljungberg
lk
ll
llc
llorente
lloris
llosa
lloyd
llpb
lltp
llvt
llvtnd
lmht
lmlm
lnst
lntt
lo
loa
load
loading
loafer
loan
loang
lobby
loc
local
location
loch
lochte
lock
locke
locker
lockhart
lockheed
locklear
lodge
loe
loew
logan
logic
logistic
logistics
logitech
logo
lohan
loi
loic
loki
lokomotiv
lolita
lollipop
lombardi
lombardy
lombok
lomonosov
lomonoxop
lon
london
lone
lonely
long
longoria
look
lookbook
looking
lookout
loong
lopes
lopetegui
lopez
lorca
lord
lorde
loren
lorenzana
lorenzo
loretta
lori
lorient
loris
lorraine
los
lossless
lost
lotion
lotte
lotteria
lotus
lou
louboutin
loud
louis
louise
louisiana
louisville
lounge
lourdes
louvre
lovato
love
lovely
lover
lovers
loving
lovren
low
lowe
lower
lowry
lowy
lozano
loài
loàn
loáng
loát
loãng
loét
loóng
loại
loạn
loạt
loẹt
loỏng
lp
lpb
lpddr
lpg
lpr
lptb
lr
lrasm
ls
lscb
lsd
lse
lss
lt
ltd
lte
lts
ltt
ltz
lu
luala
luanda
luang
lubitz
luc
luca
lucas
lucent
lucerne
lucia
luciano
lucie
lucio
luck
lucknow
lucky
luconia
lucy
ludogorets
ludovic
ludwig
lufthansa
lugan
lugansk
lugo
luhan
luhansk
lui
luigi
luis
luiz
luk
luka
lukaku
lukanovic
lukas
lukashenko
lukashevich
lukasz
luke
lukkade
lukoil
lukyanov
lula
lulu
lulzsec
lum
lumi
lumia
lumix
lumpur
lun
luna
lunar
lund
luneng
lung
luo
luong
lupita
lupus
lustig
luta
lutein
luther
lutsenko
lutz
luvias
lux
luxembourg
luxemburg
luxgen
luxor
luxury
luy
luyn
luyên
luyến
luyện
luz
luzhkov
luzhniki
luzon
luân
luât
luôn
luông
luận
luật
luốc
luống
luồn
luồng
luổng
luộ
luộc
lv
lviv
lvmh
lvn
lvov
lwb
lwin
lx
lxat
ly
lybia
lycopen
lycopene
lydia
lyft
lympho
lynch
lynh
lynk
lynn
lynne
lynx
lyon
lyric
lysenko
lysine
lyudmila
là
làm
làn
làng
lành
lào
lá
lác
lách
lái
lán
láng
lánh
láo
láp
lát
láu
láy
lâm
lân
lâng
lâp
lâu
lây
lã
lãi
lãm
lãn
lãng
lãnh
lão
lè
lèn
lèng
lèo
lé
lém
lén
léo
lép
lét
lê
lên
lênh
lênin
lêu
lì
lìa
lìege
lìm
lìn
lình
lìu
lí
lích
lính
líp
lít
líu
lò
lòa
lòe
lòi
lòng
ló
lóa
lóc
lóe
lói
lóng
lóp
lópez
lót
lô
lôgic
lôi
lôm
lômônôxốp
lông
lù
lùa
lùi
lùm
lùn
lùng
lú
lúa
lúc
lúi
lúm
lún
lúng
lúp
lút
lúy
lý
lăk
lăm
lăn
lăng
lđ
lđbđ
lđbđvn
lđct
lđlđ
lđlđvn
lđnt
lđo
lđtb
lđtbxh
lđtđ
lđvn
lĩnh
lũ
lũi
lũng
lũy
lơ
lơi
lơn
lư
lưa
lưc
lưng
lưu
lươn
lương
lưới
lướt
lười
lườm
lườn
lường
lưỡi
lưỡng
lược
lượm
lượn
lượng
lượt
lạ
lạc
lạch
lại
lạm
lạn
lạng
lạnh
lạp
lạt
lạy
lả
lải
lảng
lảnh
lấm
lấn
lấp
lất
lấu
lấy
lầm
lần
lầu
lầy
lẩu
lẩy
lẫm
lẫn
lẫy
lận
lập
lật
lậu
lậy
lắc
lắk
lắm
lắng
lắp
lắt
lằn
lằng
lẳng
lặc
lặn
lặng
lặp
lặt
lẹ
lẹm
lẹo
lẹt
lẻ
lẻn
lẻo
lẽ
lẽn
lẽo
lế
lếch
lến
lết
lếu
lề
lềnh
lều
lể
lễ
lệ
lệch
lệnh
lỉnh
lỉu
lị
lịa
lịch
lịm
lịnh
lọ
lọc
lọi
lọn
lọng
lọp
lọt
lỏi
lỏm
lỏn
lỏng
lố
lốc
lối
lống
lốp
lốt
lồ
lồi
lồng
lổ
lổn
lổng
lỗ
lỗi
lộ
lộc
lội
lộn
lộng
lột
lớ
lới
lớn
lớp
lờ
lời
lờn
lở
lởi
lởm
lởn
lỡ
lợ
lợi
lợm
lợn
lợp
lợt
lụ
lụa
lục
lụi
lụn
lụng
lụt
lụy
lủ
lủi
lủn
lủng
lứa
lức
lứt
lừ
lừa
lừng
lừu
lử
lửa
lửng
lữ
lữa
lững
lự
lựa
lực
lựng
lựu
lỳ
lỷ
m
ma
maarten
maas
maasai
maastricht
mabille
mac
macadamia
macan
macao
macaron
macarthur
macau
macaulay
macbook
macca
maccabi
macd
macdonald
macedonia
macfarlan
mach
machado
machar
macheda
machine
machu
macintosh
mack
mackay
mackenzie
mackle
macos
macpherson
macquarie
macri
macro
macron
macrumors
macy
mad
mada
madagascar
madagui
madam
madame
madaya
madden
maddox
made
madeira
madeleine
madird
madison
madoff
madona
madonna
madrid
madridista
madrigal
madsen
maduro
madut
madút
mae
maehara
maersk
mafia
mag
magar
magath
magazine
magdalena
magellan
maggi
maggie
maggio
maghreb
magic
magie
magiê
magna
magnesium
magneto
magnitsky
magnotta
magnum
magnus
magomed
maguindanao
maguire
mah
maha
mahajan
mahal
mahan
maharashtra
mahathir
mahdi
maher
mahind
mahindra
mahmood
mahmoud
mahmud
mahrez
mahroug
mahut
mai
maicon
maidan
maiduguri
maika
mail
mailonline
mainboard
maine
mainichi
mainz
maire
maison
maiziere
maj
majestic
majid
major
majumdar
mak
maka
makarov
makarova
makassar
makati
make
makelele
maker
maketing
makeup
makhachkala
maki
mako
makoto
maks
maksim
maktoum
makudi
mal
mala
malabar
malacanang
malacca
malaga
malaisia
malaixia
malala
malawi
malay
malaya
malaysia
malcolm
malcom
maldini
maldives
male
maleficent
malek
malhotra
mali
malia
malibu
malik
maliki
malki
mall
mallorca
malmo
malmstrom
malone
malouda
malta
malvinas
malware
mama
mamamoo
mamma
man
manafort
manage
management
manager
manas
manaus
manbij
manbirth
manche
manchester
mancini
mancity
mandala
mandalay
mandanda
mandara
mandarin
mandel
mandela
mandiant
mandy
mandzukic
mane
manfred
mang
manga
mangala
mangan
mangkhut
mango
manh
manhattan
manhunt
manifest
manila
manitoba
manly
mann
manning
mannone
mannschaft
manny
mano
manohar
manolas
manolo
manor
manpads
mans
mansfield
mansion
mansoor
mansor
mansory
mansour
mansur
manu
manual
manucian
manuel
manufacturing
manulife
mao
maori
map
maple
mapletree
mapping
maps
maqdis
mar
mara
maracana
maradona
maran
marathon
marawi
marble
marc
marca
marcel
marcelino
marcello
marcelo
march
marche
marchesa
marchetti
marchionne
marchisio
marcia
marco
marcos
marcus
mardy
mare
margaret
margarita
margin
margot
margret
marguerit
mari
maria
mariah
marian
mariana
marianne
mariano
maribor
marie
marilyn
marin
marina
marine
mariner
marino
mario
marion
marisa
marise
maritime
maritimebank
mariupol
marius
marj
marjor
mark
market
marketer
marketing
marketplace
markets
marketting
marketwatch
markin
markit
markle
marko
markovic
marks
markus
marla
marlboro
marlin
marlon
maroc
marocco
maroon
marotta
marouan
marques
marquez
marquezine
marquinhos
marrakech
married
marriner
marriot
marriott
marry
mars
marseille
marsh
marsha
marshal
marshall
marshmallow
marsudi
mart
marta
martell
martelly
martha
marti
martial
martian
martin
martina
martinelli
martinez
martino
martins
marty
martyn
martí
martínez
maru
maruben
maruta
maruti
marvel
marvin
marwan
marwijk
marx
mary
maryam
maryland
maría
marốc
mas
masa
masaaki
masakazu
masako
masan
mascara
mascherano
mascot
masdar
maseco
maserati
mash
masha
mashable
mashup
masia
mask
mason
masood
masri
mass
massa
massachusett
massachusetts
massachusset
massage
massey
massimil
massimo
masstel
master
mastercard
masterchef
masters
mat
mata
matador
match
matcha
mate
mateen
mateo
materazzi
material
materials
math
mathew
mathias
mathieu
mathilde
matias
matic
matilda
matip
matiz
matri
matrix
mats
matsu
matsubara
matsuda
matsudo
matsumoto
matsushita
matt
mattarella
matte
matteo
matthaus
matthew
matthews
matthi
mattia
mattis
matuidi
matvienko
matviyenko
matxcova
matxcơva
mau
maung
maureen
maurer
mauri
maurice
mauricio
mauritania
mauritius
mauro
maute
mav
maverick
mavericks
max
maxi
maxim
maxima
maximark
maxime
maximilian
maximus
maxwell
maxx
may
maya
mayadeen
mayadin
maybach
maybank
maybelline
mayer
maylaysia
mayo
mayonnaise
mayoral
mayorga
mayweather
maz
mazda
mazut
mazzarri
mazút
mb
mba
mbappe
mbb
mbbank
mbc
mbda
mbh
mbk
mbke
mbland
mblaq
mbps
mbs
mbt
mbv
mc
mcadams
mcafee
mcarthur
mcauley
mcavoy
mcbride
mcc
mccabe
mccain
mccall
mccann
mccarthy
mccartney
mcchrystal
mcclaren
mcclean
mcconaughey
mcconnell
mccormick
mccullo
mcdonald
mcdonnell
mcdorman
mcdowell
mcenroe
mcfadden
mcfarlan
mcfaul
mcg
mcgee
mcgill
mcgovern
mcgowan
mcgrath
mcgraw
mcgregor
mcgurk
mcilroy
mcintosh
mcintyre
mck
mckay
mckee
mckenna
mckenzie
mckinley
mckinney
mckinnon
mckinsey
mclaren
mclean
mcleish
mcmahon
mcmanaman
mcmaster
mcmenemy
mcnair
mcnamara
mcquarrie
mcqueen
mctominay
mcu
mcv
md
mda
mdb
mdec
mdf
mdg
mdgs
mdma
mdr
me
mead
meade
meadow
meadows
mean
meanchey
meat
meazza
mec
mecca
mechanics
mecklenburg
med
medan
medel
medellin
medi
media
mediamart
mediaset
mediatek
medic
medical
medicare
medicine
medina
mediplast
medium
medlatec
medley
medvedev
mee
meego
meena
meet
meeting
mefrimex
meg
mega
megamall
megan
megapixel
megastar
megaton
megaupload
megavnn
megawatt
meghan
megi
megumi
mehdi
mehman
mehmedi
mehmet
mehr
mehsud
mehta
mei
meier
meiji
meinhardt
meir
meireles
meitu
meizu
mek
meko
mekong
mekophar
mel
melamin
melamine
melania
melanie
melanin
melara
melatonin
melbourne
meldonium
melenchon
melia
melin
melinda
melior
melissa
mellon
melnichenko
melo
melody
melon
melor
melvin
melzer
member
memo
memorial
memories
memory
memphis
men
mena
mendes
mendez
mendoza
mendy
menendez
menez
menezes
meng
menon
menras
mensah
menswear
menthol
mentor
menu
meo
mer
merah
meranti
merapi
merc
mercado
mercantile
mercedes
mercer
merchant
merck
mercosur
mercure
mercury
mercy
merdeka
meredi
merida
meridian
merino
merkava
merkel
merlin
merlo
merri
merrill
merry
mers
merseyside
mert
mertens
mertesacker
meryl
mes
mesa
message
messages
messenger
messi
mestalla
mesut
met
meta
metal
metalex
metalist
metallic
metan
meteor
metfone
meth
methadone
methamphetamin
methamphetamine
methane
methanol
method
methyl
meti
metlife
metoo
metro
metrojet
metropole
metropolis
metropolitan
metz
meunier
mevl
mew
mexes
mexican
mexico
meyer
mf
mfc
mfn
mg
mgar
mgimo
mgm
mh
mhb
mhbs
mhc
mhz
mi
mia
miami
mianma
miao
mic
mica
micah
mice
michael
michal
michalak
micheal
michel
michelangelo
michele
micheletti
michelin
michelle
michi
michigan
michiko
michoacan
michu
michy
mick
mickey
micky
micra
micro
microgam
microgram
micromet
micron
micronesia
microphone
microsd
microsoft
microusb
microwave
micrô
mid
midas
midcap
middle
middlesbrough
middleton
midea
midi
midlands
midnight
midtjylland
midu
midway
mie
mig
mighty
mignolet
miguel
mihail
mihajlovic
mik
mika
mikado
mikael
mike
mikel
mikhail
mikhailov
mikhe
miki
miko
mikoyan
mil
mila
milan
milanista
milano
mile
miles
miley
milf
mili
miliband
miligam
milik
miliket
mililít
milimet
milinkovic
military
milito
milk
milky
mill
milla
mille
millennial
millennium
miller
milli
millie
million
millionaire
millions
mills
millwall
milner
milo
milor
milos
milovan
milton
milwaukee
mimi
mimo
mimosa
min
mina
minaj
minami
mind
mindanao
mine
minecraft
mineiro
mineral
ming
minh
mini
minibus
mining
minion
minions
minishow
miniso
ministop
minivan
minneapolis
minnesota
mino
minogue
minor
minsk
mint
minute
minuteman
minutes
minzy
mio
mipec
mir
mira
miracle
mirae
mirage
mirai
mirale
mirallas
miranda
mirei
miriam
mirinae
mirko
miro
mironov
miroslav
mirren
mirror
mirrorless
mirv
mirza
misa
misch
miserables
misfit
mishra
miso
misrata
miss
missile
missing
mission
mississippi
missosology
missouri
mist
mister
misthy
mistral
mistura
misty
misérables
mit
mitch
mitchell
mito
mitraco
mitrovic
mitsu
mitsubishi
mitsui
mitsuo
mitt
mittenaere
mitterrand
miu
miui
miura
mivec
miwon
mix
miya
miyagi
miyake
miyako
miyazaki
mizokami
mizuho
mizuno
miên
miêng
miêu
miến
miếng
miết
miếu
miền
miều
miễn
miễu
miện
miệng
miệt
mj
mk
mkhitaryan
ml
mladic
mlc
mlee
mlrs
mls
mlô
mm
mma
mmea
mmf
mmhg
mmorpg
mms
mnangagwa
mnet
mnp
mns
mnuchin
mo
moa
moab
moallem
moammar
moan
moana
moaz
mob
moba
mobi
mobiado
mobifone
mobiistar
mobil
mobile
mobility
mobiphone
mobitv
mobylette
moca
mocha
mochi
mockingjay
mod
moda
mode
model
models
modem
modern
modi
modric
modul
module
moe
moeld
mof
mog
mogadishu
moggi
mogherini
moh
moha
mohamad
mohamed
mohammad
mohammed
mohan
mohd
mohsen
moi
moines
mojave
mojo
mok
mokara
mokpo
mol
moldova
molenbeek
molina
molly
molniya
molo
mom
momani
mombasa
momen
moment
momentu
mommy
momo
momoland
mon
mona
monaco
monarch
monash
moncada
monchengladbach
monday
monde
mondelez
mondeo
mondulkiri
monet
money
monfils
mong
mongolia
monica
monika
monique
monis
monitor
monk
monkey
mono
monocytogenes
monomakh
monorail
monoshock
monoxide
monreal
monroe
monrovia
mons
monsanto
monsoon
monstar
monster
monsters
mont
monta
montag
montana
montblanc
monte
montella
montenegro
monterey
montero
monterrey
montessori
montevideo
montgomery
monti
montolivo
montoya
montpellier
montreal
montreuil
montreux
montreál
monument
moo
mooc
mood
moody
moon
moong
moonlight
moor
moore
mop
mor
mora
moraes
morais
morakot
moral
morales
moran
moranbong
morandi
morata
moratti
more
moreira
morell
moreno
moresby
moretz
morgan
morgulov
mori
morimoto
morin
moritz
morley
morning
moro
morocco
morozov
morphin
morphine
morris
morrison
morse
morsi
morten
morton
mos
mosaic
moschino
moscovici
moscow
moses
moshe
moskit
moskovit
moskva
mosque
mosquito
moss
mossad
most
mostafa
mosul
moswc
mosyakov
mot
mota
motegi
mother
moti
motion
moto
motogp
motor
motorcycle
motorola
motorrad
motors
motorshow
motorsport
motta
mottainai
mottaki
mou
moualem
mount
mountain
moura
mourinho
mousa
mousavi
mouse
moussa
mousse
moutinho
mov
move
movement
movenpick
movie
movies
movimar
moving
movistar
movitel
moya
moyes
mozambique
mozart
mozilla
mozzarella
moóc
moọc
mp
mpa
mpc
mpeg
mpg
mph
mpi
mpv
mpx
mq
mr
mrc
mrcc
mri
mrs
mrt
ms
msb
msbs
msc
msci
msd
msdf
msf
msi
msm
msn
msnbc
msr
mst
msta
msx
mt
mta
mtb
mtm
mtp
mtqg
mtth
mttq
mttqvn
mtv
mtxt
mtđt
mu
mua
muaban
muallem
muamba
muangthong
muay
mubarak
much
mud
mueller
mugabe
mughal
muguruza
muhamad
muhammad
muhammed
mui
mujahid
mujahideen
mujica
mujigae
mukherjee
mukhtar
mukwege
mul
mulally
mulberry
mullen
muller
mulli
mulsanne
multi
multimedia
multiple
multistrada
mum
mumbai
mummy
mumuso
mun
munchen
mundi
mundo
muniain
munich
municipal
munir
munoz
munro
munster
muntari
mur
mura
murad
murakami
murakhovsk
murano
murcia
murcielago
murder
murdoch
muriel
murillo
murmansk
murphy
murray
mursi
musa
musashi
muscat
muse
museum
museveni
musharraf
music
musical
musk
muslera
muslim
mussolini
must
mustafa
mustafi
mustang
mustin
musudan
mutant
mutassim
mutko
mutrap
mutu
mutual
mutv
muôi
muôn
muông
muối
muốn
muống
muốt
muồi
muồng
muỗi
muỗm
muỗng
muội
muộn
mv
mva
mw
mwc
mwg
mx
mxh
my
myamar
myanamar
myanma
myanmar
myeong
myers
myint
mykola
myong
myoung
myself
myspace
mystery
mytv
myung
mà
mài
màn
màng
mành
mào
màu
mày
má
mác
mách
mái
mán
máng
mánh
máo
márquez
mát
mátxcơva
máu
máy
mâcđ
mâm
mân
mâu
mây
mã
mãi
mãn
mãng
mãnh
mão
mè
mèm
mèn
mèo
mé
méc
mém
mén
méo
mép
mét
mê
mêhicô
mêkông
mênh
mì
mìn
mình
mí
mía
mích
mít
míttinh
mò
mòi
mòn
mòng
mó
móc
mói
móm
món
móng
móp
mót
mô
môi
môn
mông
môt
môtô
môtơ
môđun
mù
mùa
mùi
mùn
mùng
mú
múa
múc
múi
mún
múp
mút
mý
măng
măt
mĩ
mĩm
mũ
mũi
mũm
mơ
mơn
mư
mưa
mưu
mươi
mương
mướn
mướp
mướt
mười
mường
mượn
mượt
mạ
mạc
mạch
mại
mạn
mạng
mạnh
mạo
mạp
mạt
mạy
mả
mải
mảng
mảnh
mảy
mấn
mấp
mất
mấu
mấy
mầm
mần
mầu
mầy
mẩm
mẩn
mẩu
mẩy
mẫm
mẫn
mẫu
mận
mập
mật
mậu
mắc
mắm
mắn
mắng
mắt
mằn
mặc
mặn
mặt
mẹ
mẹo
mẻ
mẽ
mế
mến
mếu
mề
mềm
mền
mễ
mệ
mệnh
mệt
mỉ
mỉa
mỉm
mị
mịch
mịn
mịt
mọ
mọc
mọi
mọn
mọng
mọt
mỏ
mỏi
mỏm
mỏng
mố
mốc
mối
mống
mốt
mồ
mồi
mồm
mồn
mồng
mổ
mỗ
mỗi
mộ
mộc
mộng
một
mớ
mới
mớm
mờ
mời
mở
mỡ
mợ
mụ
mục
mụn
mủ
mủn
mứ
mứa
mức
mứt
mừng
mửa
mực
mỳ
mỷ
mỹ
n
na
nab
nabi
nabil
nabucco
nac
nacc
nacho
nacion
nacional
nacl
nadal
nadella
nadezhda
nadia
nadine
nadu
naf
nafiqad
nafoods
nafosted
nafta
naftogaz
nag
naga
nagal
nagano
nagar
nagasaki
nagatomo
nago
nagorn
nagorny
nagoya
nagy
naha
nahyan
nai
nail
nainggolan
nairobi
naismith
naive
najaf
najib
nak
naka
nakagaw
nakajima
nakamoto
nakamura
nakao
nakatani
naked
nakedbike
nakhimov
nakhodka
nakhon
nalbandian
nam
namabank
name
namhong
namibia
namnoy
nan
nana
nancy
nand
nang
nangarhar
nanh
nani
nano
nanomet
nantes
nanyang
nao
naomi
naoto
nap
napa
napalm
napas
naples
napoleon
napoli
napolitano
napoléon
nappa
nar
nara
narathiwat
narayan
narendra
nari
narita
narnia
narongs
naruhito
naruto
naryshkin
nas
nasa
nasdaq
nash
nasheed
nashville
nasir
nasr
nasrallah
nasri
nasser
nast
nastasic
nastja
nasu
nat
natal
natale
natalegawa
natalia
natalie
natalya
natanz
natasha
natcom
nate
natgeo
nath
nathalie
nathan
nathaniel
nation
national
nations
nato
natri
natt
natto
natuna
natural
naturalnews
nature
nauert
nautilus
nauy
nav
nava
naval
navalny
navara
navarre
navarro
navas
naver
navi
navibank
navigation
navigator
navigos
navy
nawa
nawaplastic
nawaz
nay
naypyidaw
naypyitaw
naz
nazaire
nazar
nazarbayev
nazca
nb
nba
nbb
nbc
nbh
nbs
nca
ncap
ncb
ncc
nchmf
nckh
ncl
ncm
ncpo
ncs
nct
ncđt
nd
ndaa
ndc
ndf
ndrangheta
ndrc
ndt
ndtv
ndvn
ndđt
ne
nea
neal
neanderthal
near
nebenzia
nebraska
nec
necas
ned
nedved
need
neeson
nefertiti
neft
negev
negredo
negros
nehru
neil
neill
nel
nelly
nelson
nem
nemanj
nemo
nemtsov
nen
nenets
neo
neon
neowin
nep
nepal
neptune
nerazzurri
neri
nero
nes
nesat
nescafé
nesir
ness
nest
nesta
nestle
nestlé
nestor
net
netanyahu
netbook
netease
netflix
netizen
neto
network
networking
networks
neu
neuer
neul
neumann
neuro
neuron
neutrino
neutron
neva
nevada
never
neverland
neves
neville
nevsky
new
newark
newcastle
newfoundland
newman
newport
news
newsasia
newspaper
newsweek
newt
newton
newtown
newyork
newzealand
nex
nexi
next
nexus
neymar
nfc
nfl
nfsc
ng
nga
ngai
ngan
ngang
ngao
ngay
ngh
nghe
nghi
nghinh
nghiêm
nghiên
nghiêng
nghiêp
nghiêu
nghiến
nghiền
nghiễm
nghiệm
nghiện
nghiệp
nghiệt
nghè
nghèn
nghèo
nghé
nghén
nghét
nghê
nghênh
nghêu
nghì
nghìn
nghía
nghĩ
nghĩa
nghĩnh
nghẹ
nghẹn
nghẹt
nghẽn
nghẽo
nghế
nghếch
nghề
nghễ
nghệ
nghệch
nghỉ
nghỉm
nghị
nghịch
nghịt
ngnd
ngnlđ
ngo
ngoa
ngoai
ngoan
ngoc
ngoe
ngoi
ngoisao
ngon
ngoài
ngoác
ngoái
ngoáy
ngoãn
ngoèo
ngoạc
ngoại
ngoạm
ngoạn
ngoạt
ngoải
ngoắc
ngoắt
ngoằn
ngoằng
ngoặc
ngoặt
ngu
nguoi
nguoiduatin
nguy
nguyen
nguyên
nguyền
nguyễn
nguyện
nguyệt
nguôi
nguýt
nguẩy
nguậy
nguồn
nguội
nguời
ngà
ngài
ngàm
ngàn
ngàng
ngành
ngào
ngày
ngác
ngách
ngái
ngán
ngáo
ngáp
ngát
ngáy
ngâm
ngân
ngâu
ngây
ngã
ngãi
ngênh
ngò
ngòi
ngòm
ngòn
ngó
ngóc
ngói
ngón
ngóng
ngóp
ngót
ngô
ngôi
ngôn
ngông
ngùi
ngùn
ngùng
ngúm
ngún
ngút
ngăm
ngăn
ngũ
ngơ
ngơi
ngư
ngưng
ngưu
ngưòi
ngươi
ngươn
ngươì
ngước
ngườ
người
ngưởi
ngưởng
ngưỡng
ngược
ngượng
ngạ
ngạc
ngạch
ngại
ngạn
ngạnh
ngạo
ngạt
ngả
ngải
ngấm
ngấn
ngất
ngấu
ngấy
ngầm
ngần
ngầu
ngẩm
ngẩn
ngẩng
ngẫm
ngẫu
ngậm
ngập
ngậu
ngậy
ngắc
ngắm
ngắn
ngắt
ngằn
ngặn
ngặt
ngọ
ngọa
ngọc
ngọn
ngọng
ngọt
ngỏ
ngố
ngốc
ngốn
ngồ
ngồi
ngồn
ngồng
ngổ
ngổm
ngổn
ngỗ
ngỗng
ngộ
ngộn
ngộp
ngột
ngớ
ngớt
ngờ
ngời
ngỡ
ngợ
ngợi
ngợm
ngợp
ngụ
ngụa
ngục
ngụm
ngụp
ngụt
ngụy
ngủ
ngủi
ngứa
ngừ
ngừa
ngừng
ngửa
ngửi
ngữ
ngự
ngựa
ngực
nh
nha
nhai
nham
nhan
nhang
nhanh
nhao
nhau
nhcsxh
nhe
nhem
nhen
nheo
nhi
nhim
nhiêm
nhiên
nhiêu
nhiêù
nhiếc
nhiếp
nhiề
nhiều
nhiểu
nhiễm
nhiễu
nhiệm
nhiệp
nhiệt
nhiệu
nhk
nhm
nhnn
nho
nhoi
nhom
nhon
nhoài
nhoáng
nhoét
nhoạng
nhoẹt
nhs
nhtm
nhtmcp
nhtsa
nhtw
nhtư
nhu
nhum
nhung
nhuyễn
nhuần
nhuận
nhuế
nhuệ
nhuố
nhuốc
nhuộm
nhà
nhàm
nhàn
nhàng
nhào
nhá
nhác
nhách
nhái
nhám
nhánh
nháo
nháp
nhát
nháy
nhâm
nhân
nhâp
nhât
nhã
nhãn
nhãng
nhão
nhè
nhèm
nhèo
nhé
nhéo
nhép
nhét
nhì
nhìn
nhí
nhích
nhím
nhíp
nhít
nhíu
nhò
nhòa
nhòe
nhòm
nhó
nhóc
nhói
nhóm
nhón
nhót
nhô
nhôm
nhông
nhùi
nhùn
nhùng
nhú
nhúc
nhúm
nhún
nhúng
nhút
nhăm
nhăn
nhăng
nhĩ
nhũ
nhũn
nhũng
nhơ
nhơn
như
nhưng
nhương
nhường
nhưỡng
nhược
nhượng
nhạ
nhạc
nhại
nhạn
nhạnh
nhạo
nhạt
nhạy
nhả
nhảm
nhản
nhảnh
nhảu
nhảy
nhấc
nhấm
nhấn
nhấp
nhất
nhầm
nhầy
nhẩm
nhẩy
nhẫm
nhẫn
nhẫy
nhậm
nhận
nhập
nhật
nhậu
nhậy
nhắc
nhắm
nhắn
nhắng
nhắt
nhằm
nhằn
nhằng
nhẳng
nhặn
nhặng
nhặt
nhẹ
nhẹm
nhẹn
nhẹp
nhẹt
nhẻm
nhẽ
nhẽo
nhếch
nhễ
nhện
nhỉ
nhị
nhịn
nhịp
nhọ
nhọc
nhọn
nhọt
nhỏ
nhố
nhối
nhốn
nhốt
nhồi
nhồng
nhổ
nhổm
nhổn
nhộn
nhộng
nhột
nhớ
nhớp
nhớt
nhờ
nhờn
nhở
nhởn
nhỡ
nhợ
nhợt
nhụa
nhục
nhụi
nhụt
nhụy
nhủ
nhứ
nhức
nhứt
nhừ
nhử
nhữ
những
nhự
nhựa
nhựt
ni
nia
niacin
niagara
niang
nibelc
nibiru
nic
nicaragua
nice
nich
nichkhun
nicholas
nichols
nicholson
nick
nickel
nicki
nicklas
nicklaus
nickname
nicky
nico
nicobar
nicol
nicola
nicolai
nicolas
nicole
nicolá
nicosia
nicotex
nicotin
nicotine
nida
nidec
nie
niels
nielsen
nieto
nigel
niger
nigeria
night
nightfall
nightmare
nights
nigieria
nigiêria
niguez
nihon
niigata
niinisto
niit
nik
nike
niken
niki
nikita
nikke
nikkei
nikki
nikko
niklas
niko
nikol
nikola
nikolaev
nikolai
nikolay
nikon
nikos
nile
nilmar
nilon
nilong
nilsson
nilông
nim
nimitz
nimr
nin
nina
nine
ninet
nineveh
ning
ninh
ninja
nino
nintendo
nippon
nirbhay
nirmal
niro
nis
nishi
nishikori
nishimura
nishino
nismo
nissan
nissin
nistelrooy
nit
nitrat
nitrate
nitric
nitrit
nitrite
nitro
nitrogen
nitrosamine
nitơ
niu
nivea
nix
nixon
nizhny
niê
niêm
niên
niêu
niềm
niền
niềng
niễng
niệm
niệu
nk
nkbv
nkg
nkt
nkurunziza
nl
nld
nlg
nlmt
nlnt
nlsh
nlt
nlts
nltt
nlđ
nlđo
nm
nmd
nmld
nmnđ
nmtđ
nmđ
nn
nnc
nncnc
nncđdc
nnhc
nnnt
nnptnt
nnt
nnvn
nnưt
no
noaa
noah
nobel
nobita
noble
nobody
nobu
nocerino
nock
noda
node
nodong
noel
noh
noi
noir
noise
nok
nokia
nolan
nole
nolito
nom
nomura
non
nong
noo
nook
noong
noor
noordin
nooyi
nor
nora
norad
norbert
nord
nordstrom
norfolk
nori
noriega
noriko
norinco
norma
normal
norman
normandie
normandy
norod
norris
norshahrul
norte
north
northampton
norther
northrop
northumberland
northwest
northwestern
norton
norwegi
norwich
nos
nostra
nostradamus
not
notch
note
notebook
notes
nothing
notification
notifications
nottingham
nou
nougat
nour
nouri
nouveau
nouvel
nouvo
nova
novak
novaland
novara
novartis
novaya
novel
novgorod
novichok
novikov
novo
novoazovsk
novorossiysk
novosibirsk
novosti
novotel
now
nowhere
nox
noxh
noy
noyce
nozomi
nozza
noãn
noọng
np
npa
npc
nph
npk
npr
npt
nq
ns
nsa
nsaid
nsc
nsdlđ
nsi
nslđ
nsna
nsnd
nsnn
nss
nst
nstw
nsw
nsx
nsđp
nsưt
nt
ntb
ntbd
ntc
ntd
ntk
ntl
ntls
ntm
ntn
ntnn
ntnt
ntp
ntsb
ntsh
ntt
ntts
ntv
ntđ
ntđt
nu
nua
nubia
nuc
nuclear
nude
nuevo
nuggets
nugroho
nui
nuland
numan
number
nun
nunes
nunez
nung
nuno
nuon
nur
nurburgring
nuremberg
nuri
nurmagomedov
nurnberg
nursa
nurul
nus
nusa
nusra
nut
nuti
nutifood
nutri
nutrilite
nutrition
nuôi
nuôl
nuông
nuối
nuốt
nuột
nv
nvb
nvbs
nvcc
nvdr
nvh
nvidia
nvl
nvnonn
nvqs
nvs
nvscc
nvt
nvx
nx
nxb
nxbgdvn
nxd
ny
nylon
nymex
nyon
nyong
nypd
nyse
nyt
nytimes
nz
nzd
nà
nài
nàn
nàng
nành
nào
này
ná
nách
nái
nám
nán
náo
nát
náu
náy
nâm
nâng
nâu
nây
nã
nãi
não
nãy
nè
nèo
né
ném
nén
néo
nép
nét
nê
nêm
nên
nêu
ních
nín
nít
níu
nò
nòi
nòng
nó
nóc
nói
nón
nóng
nô
nôi
nôm
nôn
nông
nùng
núa
núc
núi
núm
núng
núp
nút
năm
năn
năng
nđ
nđnc
nđt
nđtnn
nĩa
nũng
nơ
nơi
nơm
nơron
nơxh
nư
nưa
nươc
nương
nước
nướng
nướu
nượp
nạ
nạc
nại
nạm
nạn
nạng
nạo
nạp
nạt
nả
nải
nản
nảy
nấc
nấm
nấn
nấng
nấp
nấu
nấy
nầm
nần
nầy
nẩy
nẫm
nẫu
nậm
nập
nậu
nắm
nắn
nắng
nắp
nằm
nằng
nặc
nặm
nặn
nặng
nẹp
nẹt
nẻ
nẻo
nếm
nến
nếnh
nếp
nết
nếu
nề
nền
nể
nệ
nệm
nện
nỉ
nịch
nịnh
nịt
nịu
nọ
nọc
nọi
nọt
nỏ
nốc
nối
nốp
nốt
nồi
nồm
nồng
nổ
nổi
nỗ
nỗi
nộ
nội
nộm
nộp
nớ
nới
nớp
nớt
nở
nỡ
nợ
nụ
nục
nứa
nức
nứt
nửa
nữ
nữa
nực
nựng
o
oa
oahu
oai
oak
oakland
oan
oang
oanh
oas
oasinhtơn
oasis
oaxaca
ob
oba
obaid
obama
obamacare
obayashi
obeidi
ober
obertan
obi
obiang
object
oblak
obo
obor
obrador
obs
observatory
observer
oc
oca
ocampo
ocb
ocbc
occup
ocean
oceanbank
och
ocha
ochoa
ocop
octa
octan
octavia
oculus
od
oda
odd
oddity
odditycentral
ode
odebrecht
odegaard
odemwingie
odessa
odi
odisha
odyssey
oe
oecd
oem
oestrogen
oettinge
oezil
of
off
office
officetel
official
offline
offroad
offshore
og
ogbonna
ogc
ogilvy
oh
ohio
ohlins
oi
oic
oif
oil
ois
oita
ojb
ok
oka
okada
okayama
okazaki
okhotsk
okinawa
okio
oklahoma
okon
oksana
oktoberfest
oku
ol
ola
olaf
olaha
old
oldham
oldman
ole
oled
oleg
oleksandr
olga
oli
olic
olimpic
olimpico
oliu
oliva
olive
oliveira
oliver
olivia
olivier
olli
olly
olmert
olof
ols
olsen
olson
olsson
olufsen
olympi
olympia
olympiacos
olympiad
olympiakos
olympic
olympics
olympus
om
omachi
omaha
oman
omar
ombre
omega
omer
omni
omo
omran
on
once
one
onecoin
onedrive
onenote
oneplus
ong
oniks
online
only
onlyc
ono
onodera
ons
onsen
ontario
onyx
oo
op
opal
opc
opcw
opec
opel
open
openssl
opera
operation
opioid
oplot
oplus
opmart
oppa
oppenheimer
oppo
opportunity
oprah
opta
opti
optical
optima
optimize
optimus
option
options
opxtra
or
ora
oracle
oral
orange
orban
orbis
orbital
orc
orchard
orchestra
orchid
order
ordos
ore
oreal
oregon
orenburg
oreo
oreshkin
oresol
oreál
org
organ
organic
organization
oricon
orient
oriental
origami
origi
origin
original
oringchains
oriol
orion
orissa
orlan
orlando
orleans
orlov
orly
oro
oroville
ors
ortega
ortiz
os
osa
osad
osaka
osama
osan
osasuna
osborne
osbourne
osc
oscar
osce
oseni
osh
oshima
osi
osin
osiris
osius
oslo
osman
osmar
osorio
osottanakorn
ospina
osprey
oss
ossetia
ost
ostapenko
osvaldo
oswald
ot
ota
otamendi
otc
otg
other
othman
otis
oto
otofun
otp
ott
ottawa
otter
otto
ottoman
otzi
ou
ouagadougou
ouattara
ould
ounce
our
ousman
out
outback
outbound
outdoor
outfit
outlander
outlook
output
outright
outside
outsourcing
ov
oval
over
overseas
oversize
oversized
ovi
oviedo
ovop
owen
owens
own
ox
oxalat
oxalate
oxalic
oxalis
oxfam
oxford
oxi
oxide
oxit
oxlad
oxy
oxygen
oxytocin
oy
oymyakon
oyster
oz
ozawa
ozerov
ozil
ozon
ozone
oách
oái
oán
oánh
oát
oét
oóc
oăm
oải
oắc
oằn
oẳn
oặt
p
pa
pablo
pac
pace
pacers
pacheco
pacific
pack
package
packard
packer
paco
pacquiao
pad
padang
paddington
paddock
paderborn
padfone
padilla
paektu
pagani
page
pageant
pages
pah
pahang
pai
paige
paik
paint
painting
paire
pais
paisley
pajero
paju
pak
pakansari
pakhtunkhwa
pakistan
pakixtan
pakse
pal
pala
palace
palacio
palacios
paladi
palais
palau
palawan
palazzo
palembang
palermo
palestin
palestine
palextin
palin
palisade
palladium
pallet
palm
palma
palmas
palmeiras
palmer
palmolive
palmyra
palo
paloma
paltrow
palu
pam
pamela
pamplona
pan
pana
panaad
panama
panamera
panasonic
panathinaikos
pancake
panda
pandev
pandora
panel
panenka
panetta
pang
pangasi
pangkalan
panh
panigale
panko
panmunjom
panna
pano
panorama
pant
pantech
panteleyev
pantheon
panther
pantilimon
pantsir
pany
panzer
panô
pao
paok
paola
paolo
pap
papa
papademos
papadopoulos
papain
papandreou
paparazzi
pape
paper
papers
papi
papilloma
papua
par
para
paraben
parabol
paracel
paracetamol
parade
paradis
paradise
paragames
paragon
paraguay
parallel
paralympic
paralympics
paramount
parana
paranormal
paraquat
parc
parchin
pardew
paredes
parej
parent
pari
paribas
paris
parisien
park
parker
parking
parkinson
parkour
parkson
parkview
parkway
parly
parma
paro
parody
parolo
parreira
parrikar
pars
parsons
part
partition
partizan
partner
partners
partnership
parts
party
parvathan
pas
pasadena
pascal
pashtun
paso
pasodoble
pasqual
pass
passat
passcode
passenger
passion
passport
password
past
pasta
paste
pastel
paster
pasteur
pastor
pastore
pat
pata
patagonia
pataky
patch
pate
patek
patel
patent
paterson
path
pathfinder
pathum
patil
patin
patino
patiyo
pato
patri
patricia
patricio
patrick
patriot
patrol
patrushev
pattani
pattaya
pattern
patterson
patti
pattinson
patton
patty
patê
pau
paul
paula
paulina
pauline
paulinho
paulista
paulo
paulson
paultan
pavard
pave
pavel
paveway
pavilion
pavli
pavlo
pavlov
pavlyuchenko
pavlyuchenkova
paw
pawel
pax
pay
payet
payment
payne
payoo
paypal
paz
pazzini
pb
pbgdpl
pboc
pbs
pc
pca
pcb
pcblgđ
pcc
pccc
pcccr
pccn
pccr
pcgd
pcgdmn
pci
pcie
pclb
pcmt
pcr
pct
pcth
pcthtl
pctn
pctp
pctpmt
pctt
pcworld
pcx
pd
pda
pdaf
pdc
pdf
pdk
pdl
pdr
pdrc
pdvsa
pe
peabo
peace
peach
peak
pear
pearce
pearl
pearson
peas
pebble
pec
pecc
pechora
pectin
ped
pedal
pedersen
pediasure
pedro
pee
peel
peer
pega
pegas
pegasus
pegatron
peggy
pei
pekerman
pel
pele
pelicans
pelle
pellegrini
pelosi
pemex
pen
pena
penalty
penang
pencak
pence
pencil
pendleton
penelope
peng
penguin
penh
penhouse
penicillin
peninsula
penn
pennetta
pennsylvania
penny
pennywise
penta
pentagon
pentax
pentaxim
penthouse
penã
people
pep
pepe
pepino
peplum
pepper
pepsi
pepsico
peptide
per
perak
peralta
percy
pere
pereira
peres
pereyra
perez
perfect
perfecto
performance
peri
perisic
perkins
perla
perm
pernambuco
perodua
peron
peroxide
perry
perse
perseids
persi
persian
persie
person
personal
perth
pertiwi
peru
perve
pes
pescara
peshawar
peshkov
peshmerga
peskov
peso
pet
peta
petaflop
pete
petec
peter
peterborough
peterburg
peters
petersburg
petersen
peterson
petey
petit
petkovic
petr
petra
petraeus
petric
petro
petrobras
petrochina
petrol
petroland
petroleum
petrolimex
petronas
petrosetco
petrotimes
petrov
petrovic
petrovietnam
petrus
petter
petya
peugeot
pew
pewpew
peyton
pf
pfa
pfeiffer
pfizer
pg
pga
pgbank
pgc
pgd
pgm
pgs
pgđ
ph
pha
phablet
phaco
phai
phalanx
pham
phan
phang
phanh
phanom
phantom
phao
phaolô
phapluat
phapluatplus
pharaoh
pharm
pharma
pharmaceutical
pharmaceuticals
pharrell
phase
phau
phay
phcn
phe
phelan
phelps
phen
phenol
phenolic
phenom
pheo
pheu
phev
phhs
phi
phia
phil
philadelphia
philani
philharmonic
philip
philipin
philipines
philipp
philippe
philippin
philippine
philippines
philips
phillip
phillipines
phillipp
phillippines
phillips
philppines
philstar
philê
philíppin
phim
phindeli
phishing
phiu
phiên
phiêng
phiêu
phiếm
phiến
phiếu
phiền
phiểu
phiện
phiệt
phnom
phnompenh
phnôm
pho
phobos
phoebe
phoenix
phom
phomai
phomat
phomvihane
phon
phone
phonearena
phong
phosphate
phospho
phosphor
photo
photocopy
photographer
photography
photomarathon
photon
photos
photoshoot
photoshop
photpho
phou
phr
phra
phraya
phthalate
phthalates
phu
phuc
phui
phuket
phum
phun
phung
phununews
phunutoday
phuong
phuy
phuông
phuộc
phyo
phys
phyto
phytochemical
phytoestrogen
phà
phàm
phàn
phàng
phào
phá
phác
phách
phái
phán
pháo
pháp
phát
phátxít
phân
phây
phè
phèn
phèo
phé
phéng
phép
phét
phê
phênh
phì
phìn
phình
phí
phía
phích
phím
phò
phòng
phó
phóng
phô
phôi
phôm
phôn
phông
phôtô
phù
phùn
phùng
phú
phúc
phút
phăm
phăn
phăng
phũ
phơ
phơi
phơn
phư
phương
phước
phướn
phướng
phường
phượng
phượt
phạ
phạc
phạm
phạn
phạt
phả
phải
phảm
phản
phảng
phấm
phấn
phất
phầm
phần
phẩm
phẩn
phẩu
phẩy
phẫn
phẫu
phận
phập
phật
phắc
phắt
phẳng
phế
phến
phết
phềnh
phễu
phệ
phỉ
phỉnh
phịch
phịu
phọt
phỏm
phỏng
phố
phối
phốt
phốtpho
phồn
phồng
phổ
phổi
phổng
phỗng
phộng
phớ
phớc
phới
phớt
phờ
phở
phụ
phục
phụng
phủ
phủi
phứ
phức
phừng
phử
pi
pia
piaggio
piagio
pian
pianist
piano
piazza
pic
pica
picanto
picard
picasa
picasso
picc
picchu
pich
pichai
pichichi
pick
pickford
pickup
picnic
pico
picture
pictures
pid
pie
piece
pienaar
pier
pierce
piero
pierre
pieter
pietro
pig
pikachu
pike
pil
pilar
pilates
pill
pilla
pillay
pilot
pim
pin
pincus
pine
pinera
ping
pininfarina
pink
pinocchio
pinochet
pinterest
pinto
pioneer
piotr
pip
pipe
piper
pippa
pique
piqué
pir
piraeus
piranha
pirate
pirates
pirelli
pires
pirlo
piro
piromya
pis
pisa
piste
piston
pistorius
piszczek
pit
pitana
pitbull
pitch
pitsuwan
pitt
pittsburgh
piv
pix
pixar
pixel
pixels
pixie
pixma
piya
pizarro
pizjuan
pizza
pizzi
piêu
pj
pjanic
pjico
pk
pkk
pkkq
pkl
pkđk
pl
pla
plaaf
place
plan
planck
plane
planet
plank
planner
planning
plant
plasma
plastic
plata
plate
platform
platini
platinum
plato
platt
platts
play
playbook
playboy
player
playlist
playoff
playstation
plaza
plc
ple
please
plei
pleikrông
pleiku
plesetsk
plevneliev
pliskova
plo
plong
plos
plotnitsky
plu
plug
plugin
plus
pluto
plutoni
plutonium
plvn
plx
plymouth
plzen
plây
plông
pm
pmc
pmh
pmi
pmnm
pms
pmu
pnc
pnf
pnj
pno
pnp
pns
pnvn
po
poc
pocheon
pochettino
pocket
pod
podcast
podesta
podolski
poe
pogba
pogrebnyak
poh
pohang
pohe
poi
point
poirier
pok
pokemon
poker
pokhara
poklonskaya
pokémon
pol
polanski
polar
polaris
polaroid
pole
poli
police
policy
polime
politico
politics
poll
polla
pollard
polly
polo
polonium
poltorak
poly
polyakov
polycarbonate
polycom
polyester
polyethylene
polyme
polymer
polynesia
polyp
polyphenol
polypropylene
polysaccharide
polytechnic
polyvac
pom
pomina
pompeii
pompeo
pon
ponagar
ponce
pond
pong
pongour
ponomar
pont
ponta
pontiac
pony
ponzi
pooh
pool
poole
poon
poor
pop
pope
popeye
popov
popper
popping
poppy
pops
popular
por
porn
poroshenko
porsche
port
portable
portal
porte
porter
portfolio
portland
portman
porto
portrait
portsmouth
pos
posco
pose
poseidon
possebon
post
postbank
poster
postiga
pot
potassium
potomac
potro
potsdam
potter
pou
pouille
poulsen
pound
pounds
pour
pouyuen
pow
powder
powell
power
powerball
powerpoint
powers
powershot
powervr
poy
poznan
poọng
pp
ppc
ppdh
ppi
ppj
ppm
ppp
pps
pr
pra
prabang
pracha
practice
prada
pradesh
prado
prague
praha
prak
prakash
pramo
prana
prandelli
pranjic
prasad
prat
pratib
pratt
pratyusha
pravda
pravy
prawit
pray
prayut
prayuth
prc
pre
preah
prebiotic
precious
precision
predator
preferences
prem
premi
premier
premiership
premium
prenn
prens
prep
pres
present
president
presley
press
pressing
presstv
prestige
preston
pretoria
pretty
prevention
preview
prey
pri
price
pricewaterhouse
pride
priebus
priest
prieto
prima
primary
primavera
prime
primo
primorsky
primorye
prince
princes
princess
princeton
princi
principe
pring
prinsloo
print
printer
prior
pripyat
priscilla
prism
prisma
prison
prithvi
pritzker
prius
priv
privacy
private
prix
priyanka
prize
pro
probiotic
probiotics
problem
probook
proceedings
process
processing
processor
proconco
produce
producer
product
production
productions
products
professional
professor
profile
progesterone
program
programme
programs
progress
progressive
project
projector
projek
prokhorov
prolactin
prom
promenade
prometheus
promise
promotion
prompan
prompt
prop
properties
property
propofol
prospect
prosper
prostaglandin
protect
protected
protection
protein
protid
protit
proto
protocol
proton
provence
provide
proview
proxima
proxy
pru
prudence
prudential
prô
prông
ps
psa
psaki
psb
psc
psd
pse
pseudoephedrine
psg
psi
psp
pssi
psuv
psv
psy
psycho
psychology
pt
ptb
ptbv
ptc
ptcs
ptdt
ptdtbt
ptdtnt
pte
ptgđ
pti
ptit
ptl
ptn
ptnn
ptnt
ptpl
ptracker
ptsc
ptt
ptth
pttm
pttt
ptv
pu
pub
public
publisher
publishing
pudding
puebla
pueblo
puel
puente
puerto
pui
puigdemont
puka
pul
pulau
pulga
pulis
pulisic
pulitzer
pull
pullman
pulsar
pulse
puma
pump
pun
punch
puncheon
pune
punggye
punjab
punk
punta
pur
purcell
purchas
purdue
pure
pureview
purgin
purin
purple
purpose
purwo
pusan
push
pushilin
pushkin
pushkov
puskas
puskin
pussy
put
puth
putin
putra
putrajaya
putri
puyol
pv
pvb
pvc
pvcfc
pvcombank
pvd
pve
pvep
pvf
pvfc
pvfcco
pvfi
pvgas
pvi
pvl
pvn
pvoil
pvp
pvpower
pvr
pvs
pvt
pvtex
pvtm
pvx
pw
pwc
px
pxi
pxl
pxs
pxt
py
pyatov
pyd
pyeong
pyeongchang
pyeongtaek
pyi
pyjama
pylori
pymepharco
pyo
pyong
pyongan
pyro
python
pà
pàng
pá
pác
pán
páo
pát
pé
péc
péo
pérez
pét
pê
pênh
pêru
pì
pí
pía
pích
pín
pít
pò
pó
pô
pôn
pù
pú
păh
păk
păm
păng
pơ
pơmu
pơng
pưh
pưn
pạ
pạc
pả
pẩu
pắc
pắk
pằn
pết
pốc
pốk
pốt
pồ
pồn
pờ
q
qa
qaboun
qaeda
qahtani
qaida
qaim
qala
qalamoun
qamishli
qantas
qarabag
qaryatayn
qasemi
qashqai
qasr
qassem
qatar
qayyara
qb
qbv
qc
qcdc
qcdccs
qcg
qcgl
qcrv
qcvn
qe
qeada
qg
qghn
qh
qhd
qhkt
qhlđ
qhtd
qhxd
qi
qia
qian
qin
qing
qiu
qk
ql
qlbvr
qlcl
qlct
qld
qlda
qled
qlhc
qllđnn
qlnn
qlq
qlrph
qlrr
qltt
qlxd
qlđb
qlđs
qlđt
qn
qna
qncn
qng
qnk
qns
qom
qp
qpan
qppl
qpr
qpvn
qq
qr
qrtd
qs
qsd
qsdđ
qsmt
qt
qtct
qtdnd
qtkd
qtsc
qtưx
qu
qua
quad
quagliarella
qualcomm
quality
quan
quang
quanh
quantum
quaresma
quartz
quatest
quattro
quattroporte
quay
quds
que
quebec
queen
queens
queensland
queiroz
quen
quentin
queo
quercetin
querrey
quest
question
quetta
quezon
qui
quick
quickstep
quiet
quincy
quinn
quintana
quintero
quinto
quintus
quinvaxem
quito
quixote
quneitra
quoc
quota
qureshi
quy
quynh
quyên
quyến
quyết
quyền
quyển
quyện
quyệt
quà
quàn
quàng
quá
quách
quái
quán
quánh
quát
quân
quây
quãng
què
quèn
québec
quét
quê
quên
quí
quóc
quôc
quý
quýnh
quýt
quăn
quăng
quơ
quạ
quạch
quại
quạng
quạnh
quạt
quả
quản
quảng
quấn
quất
quấy
quần
quầng
quầy
quẩn
quẩy
quẫn
quẫy
quận
quật
quậy
quắc
quắm
quắn
quắp
quắt
quằn
quẳng
quặc
quặn
quặng
quặp
quặt
quẹo
quẹt
quẻ
quế
quết
quềnh
quệ
quện
quệt
quốc
quới
quờ
quở
quỳ
quỳnh
quỷ
quỹ
qvga
qwerty
qx
qz
qđ
qđnd
qđndvn
qưới
r
ra
rabbani
rabbit
rabbu
rabiot
race
racer
rachael
rachel
rachid
racing
rad
rada
radar
radcliffe
radek
radeon
radial
radio
radisson
radja
radwanska
raf
rafa
rafael
rafah
rafale
raffael
raffaella
raffles
rafik
rafinha
raglai
ragnar
ragnarok
rahami
raheem
rahim
rahman
rahul
raider
raikkonen
rail
railway
rain
rainbow
rainier
rainsy
raiola
raj
raja
rajagobal
rajagopal
rajamangala
rajapaksa
rajaratna
rajasthan
rajendra
rajevac
rajoy
rakhine
rakitic
rakuten
rally
ralph
ram
rama
ramadan
ramadi
ramallah
ramaphosa
ramen
ramesh
rami
ramires
ramirez
rammasun
ramon
ramos
rampage
ramsar
ramsay
ramses
ramsey
ramzan
ranariddh
ranch
rancho
rand
randolph
random
randy
ranee
rang
range
rangel
ranger
rangers
ranh
ranieri
ranking
ranocchia
ransomware
rao
raonic
rap
raphael
rapid
rapide
rapper
rappler
raptor
raptors
rapunzel
raqqa
raquel
rashford
rashid
rasid
rasmussen
raspberry
rasputin
ratajkowski
ratchaprasong
ratchasima
rating
ratings
ratnik
rattanakiri
rau
raul
raven
ravi
raw
rawalpindi
ray
raymond
rayo
raytheon
raza
razak
razr
rađa
rb
rbc
rbs
rbth
rc
rcc
rcep
rd
re
rea
reach
reaction
read
reader
reading
ready
reagan
real
reality
really
reap
reaper
reason
rebecca
rebekah
rebel
rebic
rebound
rebounds
rec
receive
recent
recep
recife
recognition
recon
record
recorder
recording
records
recovery
recycle
red
redbull
redd
reddit
redknapp
redmayne
redmi
redmond
reds
redtours
redut
ree
reebok
reed
reef
reese
reeva
reeves
ref
refaeli
reference
reform
refresh
refurbished
reg
regal
regency
regent
reggae
reggi
reggie
regina
region
regional
regis
register
registry
regu
rehman
rehn
rei
reich
reichelt
reid
reilly
reims
rein
reina
reinc
reinhard
reis
reit
relax
release
reliance
rem
remake
remember
remi
remix
remote
remove
remy
ren
rena
renato
renault
render
rene
renee
renew
renner
rennes
reno
renta
renzi
rené
reo
rep
repair
reply
repo
report
reporter
reports
repos
repsol
repubblica
republic
reputation
res
rescue
research
reserve
reset
residence
residences
resident
resolution
resolve
resort
resorts
resource
resources
respect
response
restaurant
restore
restrict
resveratrol
retail
retina
retinol
retreat
retro
return
returns
reunion
reus
reuter
reuters
reuven
rev
revenant
revenge
reventon
reverie
reverse
review
revival
revo
revolution
rex
rey
reyes
reykjavik
reynolds
reysol
rez
reza
rf
rfc
rfef
rfi
rfid
rgb
rhapsody
rhein
rheinmetall
rhian
rhine
rhino
rhoda
rhodamine
rhode
rhodes
rhodi
rhodri
rhone
rhymastic
rhys
rhythm
ri
ria
riad
rial
rian
riav
riazor
ribbon
ribeiro
ribery
riboflavin
ric
rica
ricard
ricardo
riccardo
ricci
rice
rich
richard
richards
richardson
richest
richie
richmond
richte
richter
ricin
rick
ricky
rico
ride
rider
ridge
ridley
riedl
riel
rieng
rift
riga
right
rights
rihanna
riise
rijkaard
rik
rikvip
riley
rim
rimario
rimpac
rin
rincon
rinehart
ring
ringgit
rings
rinh
rio
riot
rip
ripley
ripple
riquelme
rise
rises
rishawi
rising
risk
rit
rita
ritchie
ritz
riu
riva
rivaldo
river
rivera
riverside
riverview
riviera
rivlin
riyad
riyadh
riz
rizal
rizoma
rizzoli
riêng
riêu
riết
riếu
riềng
riệp
rlấp
rmit
rnb
ro
roa
road
roadshow
roadster
roaming
roar
rob
robart
robb
robben
robbey
robbie
robbins
robert
roberta
roberto
roberts
robertson
robin
robinho
robinson
robles
robo
robocon
robot
robothon
robotics
robredo
robson
robusta
roc
rocchi
roccuzzo
rocha
rochdale
roche
rochester
rocio
rock
rockefeller
rocker
rocket
rockets
rockstorm
rockwell
rocky
rod
rodallega
roddick
rodgers
rodham
rodman
rodney
rodolfo
rodong
rodrigo
rodrigues
rodriguez
rodríguez
rodwell
roe
roesler
rog
roger
rogerio
rogers
rogozin
rogue
roh
rohingya
rohto
roi
roja
rojas
rojiblancos
rojo
roland
rolex
rolf
roll
roller
rolling
rolls
rom
roma
romagna
romagnoli
romain
roman
romance
romania
romano
romantic
romario
rome
romelu
romeo
romero
romeu
rommel
romney
rompuy
ron
ronald
ronaldinho
ronaldo
ronan
ronda
rondo
rondon
rong
ronnie
ronson
rooftop
room
rooney
roong
roosevelt
root
roque
rory
ros
rosa
rosaleda
rosali
rosario
rosatom
rosberg
roscosmos
rose
rosell
rosemary
rosen
rosenberg
rosenborg
rosenstein
rosenthal
rosetta
rosicky
rosie
rosma
rosneft
rosoboronexport
rosol
ross
rossi
rossiya
rosso
rossoneri
rostec
rostov
roswell
rota
rotavirus
roth
rothschild
rotor
rotten
rotterdam
rou
rouge
rough
rouhani
round
rourke
rousey
rousseau
rousseff
route
router
routledge
roux
rover
rovers
rovio
row
rowan
rowe
rowhani
rowing
rowland
rowley
rowling
roy
royal
royale
royce
roàng
roòn
rpg
rph
rpk
rpm
rpmu
rq
rr
rs
rsi
rss
rsv
rsx
rt
rtl
ru
rua
rub
rubber
rubella
ruben
rubezh
rubi
rubic
rubik
rubin
rubio
ruble
ruby
rudd
ruddy
rudi
rudiger
rudolf
rudolph
rudskoi
rudskoy
rudy
rue
ruffalo
rugani
rugby
ruhr
rui
ruiz
rules
rulo
rum
rumani
rumania
rumba
rummenigge
rumsfeld
run
rung
runner
running
runway
rup
rupee
rupert
rupi
rupiah
ruptly
rus
rusalka
rush
ruslan
russ
russel
russell
russia
russian
russo
rust
rustam
rusvietpetro
rutgers
ruth
rutte
ruy
ruz
ruốc
ruồi
ruồng
ruổi
ruỗng
ruộm
ruộng
ruột
rvê
rwanda
rx
ry
ryabkov
ryacudu
ryan
ryanair
ryazan
ryb
rybolovlev
ryder
ryeo
ryo
ryong
ryotaro
ryu
ryukyu
ryzen
rà
ràng
rành
rào
rày
rá
rác
rách
rái
rám
rán
ráng
ráo
ráp
rát
ráu
ráy
râm
râu
rây
rã
rãi
rãnh
rè
rèm
rèn
ré
réhahn
rén
réo
rét
rê
rên
rêu
rì
rìa
rình
rìu
rí
rích
ríp
rít
ríu
rò
ròi
ròng
ró
róc
rói
róm
rón
rót
rô
rôbốt
rôm
rôn
rông
rù
rùa
rùi
rùng
rú
rúc
rúm
rúng
rúp
rút
răm
răn
răng
rĩ
rũ
rơ
rơi
rơm
rơmooc
rơmoóc
rơn
rư
rưng
rươi
rương
rước
rưới
rướm
rướn
rười
rường
rưởi
rưỡi
rượi
rượt
rượu
rạ
rạc
rạch
rạn
rạng
rạo
rạp
rạt
rả
rải
rảnh
rấm
rất
rầm
rần
rầu
rầy
rẩy
rẫy
rậm
rận
rập
rắc
rắm
rắn
rắp
rắt
rằm
rằn
rằng
rặn
rặng
rặt
rẻ
rẽ
rế
rết
rếu
rề
rền
rể
rễ
rệp
rệt
rệu
rỉ
rỉnh
rịa
rịch
rịn
rịt
rọ
rọc
rọi
rọt
rỏ
rỏi
rốc
rốckét
rối
rốm
rốn
rống
rốp
rốt
rồ
rồi
rồng
rổ
rỗ
rỗi
rỗng
rộ
rộc
rộn
rộng
rộp
rớ
rớm
rớt
rờ
rời
rờn
rởm
rỡ
rợ
rợn
rợp
rục
rụi
rụm
rụng
rụp
rụt
rủ
rủa
rủi
rủn
rứa
rức
rứt
rừng
rửa
rữa
rựa
rực
s
sa
saa
saab
saad
saadi
saakashvili
sab
saba
sabah
sabeco
sabella
saber
sabha
sabina
sabine
sabre
sabrina
sac
sach
sacha
sachi
sachs
sachsen
sacom
sacombank
sacomreal
sacramento
sad
sada
sadd
saddam
sadio
sadiq
sadr
sae
saeb
saeed
saenuri
saf
safa
safari
safarova
safawi
safe
safee
safeguard
safety
saffron
safi
safina
safiq
saga
sagan
sagna
sagri
saha
sahara
sahel
sahin
sahong
sai
said
saif
saigon
saigonbank
saigontel
saigontourist
saikua
saint
saipov
saison
saitama
saito
sajid
sak
saka
sakaba
sakai
sakda
sake
sakhalin
sakho
sakti
sakura
sal
sala
salaam
salad
salafi
salah
salaheddin
salam
salama
salami
salamiyah
salat
salavan
salazar
salbutamol
saldana
sale
saleh
salehi
salem
sales
salesforce
salford
salgado
salhi
sali
salicylic
salih
salim
salisbury
salleh
sally
salma
salman
salmon
salmonella
salomon
salon
saloon
salossa
salsa
salt
salva
salvador
salvatore
salvini
salzburg
sam
sama
samak
saman
samantha
samar
samara
samaras
samarra
samba
sambi
samco
samdech
same
samho
sami
samir
sammobile
sammy
samoa
sampaio
sampaoli
sampdoria
samphan
samphaodi
sampras
sampson
samrin
samson
samsung
samuel
samui
samurai
samut
san
sana
sanaa
sanamxay
sanatech
sanches
sanchez
sanchi
sanctis
sanctuary
sand
sandal
sandals
sandara
sandberg
sandbox
sander
sanders
sandisk
sandler
sandra
sandro
sands
sandwich
sandy
sane
sanest
sanford
sang
sanh
sanjay
sankei
sanna
sanofi
sanogo
sansern
santa
santafe
santana
santander
santi
santiago
santillan
santo
santon
santorini
santorum
santos
santoso
sanyo
sao
saostar
sap
sapa
sapharco
saphia
saphire
sapien
sapo
saponin
sapphire
sapporo
sar
sara
sarah
sarajevo
saran
saratov
sarawak
sardar
sardinia
sargsyan
sari
sarika
sarin
sarkozy
sarmat
sarraj
sarri
sars
sary
sas
sasaki
sasco
sasebo
sasha
sashimi
saskatchewan
sassuolo
sasuke
sat
sata
satan
satellite
satin
sato
satoshi
satpura
satra
satrafoods
satria
satta
saturday
saturn
satya
sau
saudi
saul
saunders
sav
savage
savanakhet
savannah
savannakhet
savchenko
save
saver
savic
savico
savile
savills
saving
saw
sawa
sawaco
sawyer
saxo
saxon
saxony
saxophone
say
sayasone
sayed
sayyaf
sb
sbbs
sbc
sbd
sberbank
sbic
sbj
sbs
sbt
sbu
sbv
sc
sca
scada
scaf
scalp
scan
scandal
scandinavia
scanner
scaparrotti
scar
scaramucci
scarborough
scarlet
scarlett
scavi
scb
scc
scd
scene
scenic
scg
sch
scha
schaefer
schaeff
schaeuble
schafer
schalke
schar
sche
schengen
scherzinger
schettino
schi
schiavone
schiff
schiffer
schiller
schindler
schiphol
schla
schles
schlupp
schmeichel
schmelzer
schmidt
schmitt
schmitz
schneider
schneiderlin
scho
scholar
scholarship
scholes
school
schooling
schr
schriver
schroeder
schu
schubert
schuerrle
schultz
schulz
schumacher
schumann
schumer
schurrle
schuster
schwa
schwab
schwartz
schwartzman
schwarz
schwarzenegger
schwarzer
schwe
schweinsteiger
sci
scic
science
sciences
scientific
scientist
scientology
sciglio
scion
scirocco
scmp
sco
scolari
scooter
scopus
score
scorpene
scorpion
scorpions
scorsese
scot
scotia
scotland
scott
scout
scr
scrambler
scream
screen
scrive
scroll
scs
sctv
scu
scud
scudetto
sculley
sd
sdd
sdf
sdg
sdgs
sdi
sdk
sdn
sdp
sdr
sdt
sdu
sdđ
se
sea
seabank
seacrest
seafood
seagal
seagame
seagames
seagate
seahawk
seal
seameo
sean
seaprodex
search
sears
seas
season
seasons
seat
seatimes
seattle
seawolf
seb
seba
sebastian
sec
secc
sechin
second
secret
sector
secu
secure
securities
security
sed
sedan
sedona
see
seed
seedorf
seehofer
seferovic
seg
sehun
sei
seibert
seif
seiji
sein
seine
sejong
sek
sekong
sel
selangor
selayang
selecao
seleccao
select
selection
seleka
selen
selena
selenium
seleznyov
self
selfie
selhurst
selina
sell
seller
selma
selva
sem
sema
semaan
sembcorp
semedo
semen
semi
semiconductor
seminar
sen
sena
senamuang
send
sendai
sender
senderos
senegal
seng
sengoku
senior
senkaku
senna
sennheiser
sensation
sense
senses
sensor
sentinel
sentosa
senussi
seo
seohyun
seok
seol
seolhyun
seon
seong
seongju
seongnam
seoul
sep
sepang
sepp
seqap
sequin
sequoia
ser
sera
serbia
serdyukov
sere
seren
serena
serge
sergei
sergey
sergi
sergio
serhiy
seri
serial
serie
series
serotonin
serra
serrano
serum
server
servi
service
services
sessegnon
session
sessions
sestak
set
seth
setting
settings
setup
seul
seung
seungri
sev
sevastopol
seven
seventeen
sever
severodvinsk
severomorsk
sevilla
seville
sevmash
sevt
sewol
sex
sextoy
sexy
seychelles
seydou
seydoux
seyfried
seymour
sf
sfc
sg
sgd
sgdck
sgdhcm
sgdđt
sggp
sggpo
sgk
sgp
sgt
sgtt
sgtvt
sgx
sgxt
sh
sha
shaaba
shaabi
shaar
shaarawy
shaba
shabaab
shabab
shades
shadow
shadows
shafi
shafiq
shah
shahab
shahar
shaheen
shahid
shahzad
shailene
shak
shake
shakespeare
shakhtar
shakira
shalit
shalom
sham
shamanov
shan
shandong
shane
shang
shanghai
shanghaiist
shangri
shankar
shanmugam
shannon
shao
shape
shapiro
shapovalov
shaqiri
shar
shara
sharapova
share
sharepoint
sharia
sharif
sharing
shark
sharm
sharma
sharon
sharp
sharq
shaun
shaw
shawcross
shawn
shay
shayk
shayrat
shazam
shb
shc
she
shea
shear
shearer
shebab
sheen
sheep
sheer
sheeran
sheet
sheffield
sheik
sheikh
sheikhoun
sheila
shek
shekau
shelby
shell
shelton
shelvey
shen
sheng
shenhua
shenzhen
shepard
shepherd
sher
sheraton
sheremet
sheremetyevo
sheridan
sherif
sheringham
sherlock
sherman
sherpa
sherri
sherry
sherwood
sheryl
shetty
sheva
shevchenko
shi
shia
shibuya
shield
shift
shiga
shige
shigeru
shih
shiite
shik
shikoku
shikotan
shilla
shiloh
shim
shima
shimbun
shimizu
shimon
shin
shinawatra
shindo
shine
shinee
shing
shinhan
shinhwa
shinichi
shinji
shinjuku
shinkansen
shinoda
shinzo
ship
shipbuilding
shipper
shipping
shipyard
shir
shira
shiraz
shirley
shirokov
shirt
shiseido
shisha
shishani
shiv
shiva
shiyou
shizuoka
shkod
shkval
shn
sho
shock
shoes
shoigu
shoji
shoko
shoot
shooting
shop
shopee
shophouse
shopping
shore
shores
short
shortcut
shorts
shot
shou
shoukry
should
show
showbiz
showcase
showroom
showtime
shp
shrek
shrestha
shrewsbury
shri
shriver
shs
shtora
shtp
shtt
shu
shuai
shuang
shuffle
shughour
shukla
shun
shura
shuri
shutter
shutterstock
shuttle
shuvalov
shwe
shwedagon
shyn
si
sia
siam
sib
siberi
siberia
sibutramine
sic
sicilia
sicily
sid
sida
siddharth
siddiqui
side
sidecar
sidewinder
sidg
sidi
sidibe
sidwell
sie
siebold
siem
siemens
siena
sienna
sierra
sig
sigma
sigmund
sign
signal
signature
sigurdsson
sihamoni
sihanouk
sihanoukville
sihub
sii
sik
sikh
sikkim
sikorski
sikorsky
sil
sila
silat
sildenafil
silence
silent
silic
silica
silicon
silicone
silk
silo
siluanov
silva
silver
silverado
silvestre
silvi
silvio
sim
sima
simao
simco
sime
simeone
simferopol
simic
simila
simmons
simon
simona
simone
simonov
simons
simple
simply
simpson
sims
sin
sina
sinabung
sinai
sinaloa
sinatra
sinclair
sind
sindh
sing
singapo
singapore
singer
singh
singha
single
singtel
sinh
sinis
sinjar
sinmun
sino
sinopec
sinpo
sinuiju
sio
sip
sipa
sipg
siphandone
sipri
sir
siri
sirigu
sirikit
sirisena
sirius
sirleaf
siro
sirte
sirô
sis
sisi
sisoulith
sissoko
sistar
sister
sit
sita
sitcom
site
sitharaman
siti
siu
siv
siva
sivkov
siwon
six
sixty
size
siêm
siêng
siêu
siết
sj
sjc
sjs
sk
skate
sketch
skg
ski
skill
skills
skin
skinny
skip
skirt
skkn
skoda
skripal
skriver
skrtel
skss
skull
sky
skyactiv
skydrive
skyfall
skylake
skyline
skynews
skype
skyteam
skytrax
skđs
sl
slack
slam
slash
slashgear
slate
slater
slav
slava
slave
slaviansk
slavyansk
slbm
sleep
sleeping
sleng
sli
slide
slideshow
slim
slimani
slimv
sling
slip
slipper
slk
slna
sloan
sloane
slobodan
slogan
slot
slovakia
slovenia
sloviansk
slow
slr
sls
slumdog
slutsky
sm
sma
small
smalling
smarphone
smart
smarthome
smartkey
smartlink
smartphone
smartwatch
smbc
smc
sme
smerch
smes
smetlivy
smile
smirnov
smith
smithsonian
smoke
smol
smolensk
smolov
smooth
smoothie
sms
smurf
smđh
sn
snack
snake
snap
snapchat
snapdragon
snc
sneaker
sneakers
sneijder
sniper
snooker
snoop
snow
snowden
snsd
snt
snyder
so
soares
sobchak
sobhraj
sobotka
sobyanin
soc
soccer
sochaux
sochi
social
sociedad
society
sock
socket
socola
socotra
socrates
socíet
soda
soderling
sodium
soe
soekarno
soelistyo
sofa
sofia
sofitel
soft
softbank
software
sohae
sohc
soho
sohr
sohu
soi
sojitz
sok
sokha
sokol
sokolov
sokratis
sol
solace
solanke
solar
solari
soldado
soldier
soleda
soleil
soleimani
solid
solo
solomon
solskjaer
soltanieh
solution
solutions
som
somali
somalia
somchai
some
somebody
someone
somerset
something
somme
sommer
somsavat
somyot
son
sonadezi
sonar
sonasea
sonata
song
songkhla
songkran
songkrasin
songs
sonia
sonic
sonntag
sony
soo
soobin
sooc
sook
soompi
soon
soong
sooyoung
sopcast
sophea
sophia
sophie
soprano
sor
sora
sorbonne
sorensen
sorento
soriano
soros
sorrentino
sorry
soryu
sos
sotheby
sotloff
sou
soudelor
soul
sound
soundmax
soup
source
sousa
south
southampton
southeast
southern
southernbank
southfront
southgate
southwest
souza
sovann
sovereign
sovico
soyuz
soài
soái
soán
soát
soóc
soạn
soạng
soạt
sp
spa
space
spacex
spacy
spaghetti
spalletti
spam
span
spark
sparks
sparrow
sparta
spartak
spartan
spc
spct
spd
spdr
speak
speaker
spear
spears
spec
special
speciale
spect
spectre
spectrum
speech
speed
spencer
speroni
spetsnaz
speu
spf
spi
spice
spicer
spider
spiderman
spiegel
spielberg
spies
spieth
spike
spin
spinner
spirit
spirulina
spitzer
spkt
splash
splendid
splendora
split
spo
sport
sportage
sportback
sportbike
sporting
sportivo
sportmail
sportradar
sports
sporty
spot
spotify
spotlight
spp
spr
spring
springer
springs
sprint
sprinter
spru
sps
spt
spur
spurs
sputnik
sputniknews
spy
spyder
spyware
sq
sqc
sql
sqn
squad
square
squat
squawka
squi
squillaci
sr
src
srf
sri
srilanka
srimaka
srinagar
sriwijaya
srna
srs
srt
ss
ssangyong
ssbn
ssc
sscđ
ssd
sseayp
ssg
ssi
ssiam
ssl
ssm
ssn
st
sta
stacey
stack
stacy
stade
stadium
stadler
staffa
staffordshire
stage
stalin
stalingrad
stallion
stallone
stam
stamford
stamp
stampa
stan
stand
standard
standford
stanford
stanisla
stanislav
stankovic
stanley
stanton
staphylococcus
staples
star
starbuck
starbucks
starcity
stark
stars
starship
start
startup
startups
starwood
stat
statcounter
state
statement
states
statham
station
status
stav
stavridis
stavropol
stay
stb
stc
std
stda
ste
steak
stealth
steam
steaua
steel
steele
steelers
steenkamp
stefan
stefani
stefano
steffen
steffi
stegen
stein
steinberg
steinfeld
steinitz
steinmeier
stekelenburg
stella
stellar
stem
sten
stennis
stent
step
stepan
stepanek
stephan
stephane
stephanie
stephen
stephens
steps
stereo
sterling
stern
steroid
stevan
steve
steven
stevens
stevenson
stevie
steward
stewart
stf
sti
stick
sticker
still
stiller
stimson
sting
stinger
stingray
stirling
stk
stl
stnmt
sto
stochastic
stock
stockdale
stockholm
stoichkov
stoke
stokes
stol
stoltenberg
stone
stonehenge
stones
stop
stor
storage
storari
store
storey
stories
storm
story
stosur
stox
stoxplus
stp
str
stra
stradale
straight
strait
straits
straitstimes
stramaccioni
strange
stranger
strasbourg
strategic
strategies
strategy
stratfor
strauss
stre
streak
stream
streamer
streaming
streep
street
streetstyle
strela
strelkov
strength
strepto
streptococcus
stress
strike
string
stringer
strinic
strip
stripe
stripes
stro
strong
strootman
stru
structure
stryker
stt
stu
stuani
stuart
student
studies
studio
studios
study
stuff
stunt
sturaro
sturgeon
sturgess
sturm
sturridge
stuttgart
stuxnet
style
styles
stylish
stylist
stylus
stéphane
su
sua
suarez
sub
subaru
subasic
subeo
subi
subic
suboi
subotic
subway
success
sud
sudan
sudico
sudoku
sue
suez
suffolk
suga
sugar
sugi
sugimoto
sugiyama
suh
suharto
sui
suicide
suisse
suit
suite
suites
suju
suk
sukarno
sukhnah
sukhoi
sukhumbhan
sul
sulaiman
sulawesi
suleiman
suleyman
sulf
sulfate
sulfide
sulfur
sulfuric
sulli
sullivan
sully
sulph
sulphur
sultan
sulu
sum
sumareh
sumatra
sumi
sumit
sumitomo
sumitra
summer
summers
summit
sumo
sun
sundance
sundar
sunday
sunderland
sunflower
sunfua
sunfuric
sung
sungkyunkwan
sunhouse
sunil
suning
sunmi
sunni
sunny
sunnylands
sunrise
sunset
sunshine
sunsilk
suntory
sunview
sunwah
sup
supa
supacha
supe
super
superbike
superbowl
superdo
superior
superjet
superleggera
superman
supersport
superstar
supply
support
supra
supranational
supreme
sur
surabaya
suracha
surapong
surat
sure
suresh
surf
surface
suri
surimi
surin
surrey
surround
survey
survival
survivor
surya
susan
sushi
susil
sussex
sustainab
susu
suthep
sutherland
suti
sutopo
sutton
suu
suv
suvarnabhumi
suwayda
suwon
suy
suyễn
suzann
suzuki
suzy
suê
suôn
suông
suất
suối
suốt
sv
svalbard
svay
svc
sven
sverdlovsk
svetlana
svi
svitolina
svoboda
svr
svtn
svvn
svđ
sw
swa
swan
swanepoel
swansea
swap
swar
swaraj
swarovski
swat
swaziland
swe
sweat
swee
sweet
sweida
swi
swift
swim
swimsuit
swinburne
swindon
swing
swinton
swipe
swiss
switch
swns
sword
sx
sxd
sxh
sxkd
sxnn
sxsh
sxtm
sxxk
sy
syah
syazw
sydney
syed
sylva
sylvain
sylvester
sylvia
sylvie
sym
symantec
symbian
symphoni
symphony
syn
sync
syndicate
syndrome
syngenta
syracuse
syri
syria
syriza
sys
system
systems
systra
syt
sz
szcz
szczesny
sà
sài
sàm
sàn
sàng
sành
sào
sá
sác
sách
sái
sám
sán
sánchez
sáng
sánh
sáo
sáp
sát
sáu
sâm
sân
sâu
sây
sã
sãi
sèo
sé
séc
sém
sét
sê
sên
sênh
sêri
sêrêpôk
sêrêpốk
sì
sìn
sình
sín
sính
síp
sít
sò
sòm
sòn
sòng
só
sóc
sói
són
sóng
sót
sô
sôcôla
sôi
sông
sù
sùi
sùng
sú
súa
súarez
súc
sún
súng
súp
sút
súy
săm
săn
săng
sđd
sđk
sđt
sĩ
sũ
sũng
sơ
sơmi
sơn
sư
sưa
sưng
sương
sướng
sướt
sườn
sưởi
sượng
sượt
sạ
sạc
sạch
sạm
sạn
sạo
sạp
sạt
sả
sải
sản
sảng
sảnh
sảo
sảy
sấm
sấp
sấu
sấy
sầm
sần
sầu
sẩm
sẩy
sẫm
sậm
sập
sật
sậu
sậy
sắc
sắm
sắn
sắng
sắp
sắt
sẳn
sặc
sặt
sẹo
sẻ
sẽ
sến
sếp
sếu
sề
sền
sềnh
sểnh
sệ
sệt
sỉ
sịa
sịch
sịnh
sịt
sọ
sọc
sọt
sỏ
sỏi
số
sốc
sống
sốt
sồ
sồi
sồn
sồng
sổ
sổng
sỗ
sộ
sộp
sớ
sới
sớm
sớt
sờ
sờn
sở
sởi
sỡ
sợ
sợi
sụ
sụa
sục
sụn
sụp
sụt
sủ
sủa
sủi
sủng
sứ
sứa
sức
sứt
sừ
sừng
sử
sửa
sửu
sữa
sững
sự
sỹ
t
ta
tab
tabaqa
tabarez
table
tablet
tabmis
tabqa
tac
taca
tachibana
tacloban
tacn
tacoma
tadashi
tadic
tadmur
tae
taecyeon
taedong
taek
taekwang
taekwondo
taemin
taepodong
taeyang
taeyeon
tafishco
tag
tagore
tags
tahir
tahiti
tahrir
tai
taipei
taiwan
taj
tajikistan
tajmasago
tak
taka
takahashi
takahiro
takashi
takashimaya
takata
take
takebe
takeda
takehik
takeo
takeshi
takeshima
takfiri
taksim
takumi
tal
talabani
talaha
talal
talbot
talc
taleb
talent
taliban
talisman
talk
talking
talkshow
talksport
tall
tallinn
taluy
talwar
tam
tamara
tamaulipas
tamerlan
tamiflu
tamil
tamim
tammy
tampa
tampines
tampon
tan
tanabe
tanaboon
tanaka
tand
tandtc
tanf
tang
tango
tanh
tanimex
tanin
tanizaki
tanjung
tank
tannin
tantawi
tanya
tanzania
tao
taobao
tap
taqs
tar
tara
tarantino
tarantul
target
tariq
tarma
tarnowka
taro
tartar
tartous
tartus
tarzan
tasco
tashkent
tasigna
task
taskbar
tasmania
tasnim
tass
taste
tata
tatar
tatarstan
tate
tatiana
tatoo
tattoo
tatum
tatyana
taurus
tavares
taw
tax
taxi
tay
taylor
tb
tba
tbc
tbd
tbg
tbgsht
tbilisi
tbkt
tbktsg
tbktvn
tbm
tbn
tbnn
tbr
tbs
tbt
tbxh
tc
tcb
tcc
tccb
tccn
tccs
tccsđ
tcct
tcd
tcdl
tchaikovsky
tchc
tchq
tckt
tcl
tcm
tcmn
tcmr
tcn
tcs
tct
tctd
tctn
tctt
tcty
tcvm
tcvn
tcđ
tcđb
tcđbvn
tcđlcl
tcđt
td
tdbvantq
tdc
tddc
tdh
tdi
tdnd
tdp
tds
tdtt
tdđkxdđsvh
te
tea
teacher
teakwondo
team
teana
tears
teaser
tebas
tec
tecco
tech
techcom
techcombank
techcrunch
techfest
techmart
techni
technica
technical
technip
techno
technologies
technology
techo
techone
techradar
ted
teddy
tedi
tee
teen
teenage
teera
teese
tegra
tegucigalpa
teh
teheran
tehran
teigen
teixeira
tejas
tek
tel
telangana
tele
telecom
telefilm
telegra
telegram
telegraph
telekom
television
tell
tello
telomere
telstar
tem
temasek
tembin
temer
temp
temple
tempo
ten
tenaa
tencent
tenerife
teng
tenis
tennessee
tennis
tenor
teo
teodor
tep
tepco
tequila
ter
tera
terabyte
terengganu
teresa
terim
terminal
terminator
terra
terrain
terre
terrence
terri
terror
terry
tesco
tesla
tess
test
testosteron
testosterone
tet
tetra
tetrodotoxin
tetsuji
tetsuya
teu
teuk
teus
tevez
tex
texas
texhong
text
tf
tfp
tfs
tfsi
tft
tgdđ
tglx
tgpl
tgpn
tgsx
tgv
tgvt
tgđ
th
tha
thaad
thaco
thads
thae
thaek
thai
thaibev
thaibinh
thailand
thaksin
thalassemia
thales
tham
thames
thammavong
thamsatchanan
than
thang
thanglong
thanh
thanhnien
thani
thank
thanos
thao
that
thatcher
thau
thaugsuban
thavorn
thay
thayer
thcn
thcs
the
theater
theatre
theerathon
thegioi
thegioididong
theikdi
thein
their
theleader
them
theme
then
theo
theodore
thep
theranos
there
theresa
thermo
theron
theroux
thessaloniki
thethao
theverge
they
thi
thiago
thibau
thiem
thien
thierry
thieves
things
thinh
think
thinkpad
thinq
thirty
this
thiu
thiêm
thiên
thiêng
thiêt
thiêu
thiêú
thiếc
thiến
thiếp
thiết
thiếu
thiềm
thiền
thiềng
thiều
thiển
thiểu
thiện
thiệp
thiệt
thiệu
thmây
tho
thoa
thoai
thoan
thohir
thoi
thom
thomas
thompson
thomson
thon
thong
thonglao
thonglo
thongsi
thoong
thor
thorne
thornton
thorste
thousand
thoái
thoán
thoáng
thoát
thoại
thoải
thoảng
thoắng
thoắt
thp
thpt
thqg
thread
threat
three
thriller
thrive
thrones
through
ths
thtk
thtt
thu
thua
thuduc
thun
thunder
thunderbird
thunderbolt
thung
thuwunna
thuy
thuyên
thuyết
thuyền
thuyển
thuân
thuê
thuôn
thuấn
thuần
thuẫn
thuận
thuật
thuế
thuốc
thuồng
thuổng
thuộc
thuộm
thuột
thuở
thv
thvl
thvn
thx
thy
thyssenkrupp
thà
thàng
thành
thào
thày
thá
thác
thách
thái
thám
thán
tháng
thánh
tháo
tháp
thâm
thân
thâu
thây
thãi
thè
thèm
thèn
thé
thép
thét
thê
thêm
thênh
thêu
thì
thìa
thí
thía
thích
thím
thính
thít
thò
thòi
thòm
thòng
thó
thóa
thóc
thói
thóp
thót
thô
thôi
thôn
thông
thù
thùa
thùng
thùy
thú
thúc
thúng
thúy
thăm
thăn
thăng
thũng
thơ
thơi
thơm
thư
thưa
thương
thước
thướt
thườn
thường
thưở
thưởng
thược
thượng
thượt
thạ
thạc
thạch
thạnh
thạo
thạp
thả
thải
thảm
thản
thảng
thảnh
thảo
thảy
thấm
thấp
thất
thấu
thấy
thầm
thần
thầu
thầy
thẩm
thẩn
thẫm
thẫn
thậm
thận
thập
thật
thắc
thắm
thắn
thắng
thắp
thắt
thằn
thằng
thẳm
thẳn
thẳng
thặng
thẹn
thẹo
thẻ
thế
thếch
thề
thềm
thể
thệ
thỉ
thỉnh
thỉu
thị
thịnh
thịt
thọ
thọc
thỏ
thỏa
thỏi
thỏm
thố
thốc
thối
thốn
thống
thốt
thồ
thổ
thổi
thổn
thớ
thới
thớt
thờ
thời
thở
thợ
thụ
thục
thụp
thụt
thụy
thủ
thủng
thủy
thứ
thức
thừ
thừa
thừng
thử
thửa
thững
thự
thực
ti
tia
tiago
tian
tianji
tic
tich
ticket
ticonderoga
tie
tiemou
tien
tienphong
tienphongbank
tieu
tiff
tiffany
tifosi
tig
tiger
tigers
tigr
tigris
tiguan
tijuana
tik
tiki
tikrit
tila
tilda
tile
till
tillerson
tim
timberlake
timberwolves
time
timeline
times
timo
timor
timoshenko
timothy
timur
tin
tinh
tinna
tinopal
tintuconline
tiong
tiote
tip
tips
tipsarevic
tiqui
tiramisu
tisco
tisdale
tissot
titan
titanic
titanium
tite
titi
title
tito
titov
tivi
tivoli
tizen
tiêm
tiên
tiêp
tiêu
tiế
tiếc
tiếm
tiến
tiếng
tiếp
tiết
tiếu
tiềm
tiền
tiều
tiển
tiểu
tiễn
tiễu
tiệc
tiệm
tiện
tiệp
tiệt
tiệu
tk
tkcn
tknl
tks
tkv
tl
tlc
tlg
tlh
tls
tlt
tlv
tlđ
tlđlđvn
tm
tma
tmc
tmcp
tmdv
tms
tmt
tmv
tmz
tmđt
tn
tna
tnc
tncn
tncs
tncshcm
tndn
tngt
tnhh
tnhk
tnhs
tni
tnk
tnlđ
tnmt
tno
tnr
tns
tnt
tntn
tntp
tnts
tntt
tntx
tnv
tnvn
tnxh
tnxp
to
toa
toan
toang
toanh
tobago
tobey
tobias
tobruk
toby
tochigi
tochka
today
todaytv
todd
toe
toefl
toeic
toffees
together
togo
tohoku
toi
toilet
toivonen
token
tokugawa
tokyo
tol
toledo
tolisso
tolkien
tolstoi
tolstoy
toluene
tom
tomahawk
tomas
tomasz
tomato
tomatoes
tomb
tomboy
tomic
tomkins
tomlinson
tommy
tomo
tomomi
tomorrow
tomorrowland
tomoyuki
tomsk
ton
tone
toner
tonga
toni
tonight
tony
too
tool
toolbar
tools
toon
toong
top
topaz
topcare
topic
topica
topol
topping
topshop
tor
torch
tori
torino
tornado
toro
toronto
torre
torrent
torres
toru
tos
toshi
toshiba
toshihiro
toshiya
tosy
total
toto
tottenham
totti
touareg
touch
touchpad
touchwiz
toulalan
touliver
toulouse
touman
tour
tourbillon
toure
tourer
touring
tourism
tourist
tournament
tours
tovichakcha
tow
tower
towers
town
townsend
toxic
toxoplasm
toy
toyo
toyoda
toyota
toys
toàn
toác
toái
toán
toáng
toát
toét
toạc
toại
toản
toẹt
tp
tpbank
tpcn
tpcp
tpdn
tphcm
tpl
tpo
tpp
tq
tr
tra
trabzonspor
track
tracker
trackpad
tracy
trade
trading
trafalgar
traffic
trafford
trai
trail
trailblazer
trailer
training
tran
trang
tranh
trans
transasia
transcend
transerco
transfer
transfermarkt
transformer
transformers
transimex
transistor
transit
translate
translation
translator
transnistria
transport
transportation
transylvania
trao
traore
trapattoni
traphaco
trapp
trau
travel
traveler
traveller
travis
travolta
tray
trd
tre
treasure
treble
tree
trek
trekking
trench
trend
trending
trends
trendy
trent
treo
trevi
trevor
trezeguet
tri
tribeca
tribeco
tribune
trick
triclosan
trident
trierweiler
trifluralin
triglyceride
trillanes
trinh
trinidad
trinity
trip
tripadvisor
triple
tripoli
trippier
tripôli
trish
tristan
triton
triumf
triumph
trizzie
triêm
triên
triêng
triêu
triêụ
triết
triền
triều
triển
triện
triệt
triệu
tro
trobe
trogneux
troicki
trojan
troll
tron
trong
tronic
tronie
tropez
trophy
tropic
tropical
trouble
troy
troyes
tru
truck
trudeau
true
truedepth
truffle
trui
trujillo
trum
truman
trump
trun
trung
truong
trust
trustbank
trusted
truth
truy
truyến
truyền
truyển
truyện
truân
truông
truất
truật
truồng
tryptophan
trà
tràm
tràn
tràng
trào
trá
trác
trách
trái
trám
trán
tráng
tránh
tráo
tráp
trát
trâm
trân
trâu
trãi
trè
trèm
trèo
tré
tréo
trét
trê
trên
trêu
trì
trình
trìu
trí
trích
trò
tròn
tròng
tróc
trói
trót
trô
trôi
trôm
trôn
trông
trù
trùm
trùn
trùng
trú
trúc
trúng
trút
trăm
trăn
trăng
trĩ
trĩnh
trĩu
trũi
trũng
trơ
trơn
trư
trưa
trưng
trươc
trươi
trương
trước
trướng
trườn
trường
trưởng
trượng
trượt
trạ
trạc
trạch
trại
trạm
trạng
trạnh
trạo
trả
trải
trảm
trảng
trấn
trấp
trấu
trầm
trần
trầu
trầy
trẩy
trẫm
trận
trập
trật
trắc
trắm
trắng
trằm
trằn
trặc
trẹm
trẹo
trẻ
trẻo
trẽn
trề
trển
trễ
trệ
trệt
trỉa
trị
trịa
trịch
trịnh
trọ
trọc
trọi
trọn
trọng
trọt
trỏ
trố
trốc
trối
trốn
trống
trồ
trồi
trồng
trổ
trỗ
trỗi
trội
trộm
trộn
trớ
trớn
trờ
trời
trở
trợ
trợn
trụ
trục
trụi
trụy
trứ
trứng
trừ
trừng
trừu
trữ
trự
trực
ts
tsai
tsang
tsarnaev
tsbđ
tsc
tse
tsipras
tskh
tsmc
tsn
tsonga
tsq
tst
tsu
tsukiji
tsukuba
tsuno
tsushima
tsutomu
tsvm
tt
ttatgt
ttatxh
ttb
ttbyt
ttc
ttcc
ttck
ttckps
ttcn
ttcp
ttct
ttd
ttdbkttv
ttdl
ttf
ttg
ttgdtx
ttgsnh
ttgt
ttgtvl
tth
tthc
tthqđt
tths
tthtcđ
ttip
ttk
ttks
ttkttv
ttll
ttlt
ttn
ttnd
tto
ttp
ttptqđ
ttqlkt
ttr
ttt
tttm
tttp
tttt
tttv
ttv
ttvh
ttvn
ttx
ttxd
ttxh
ttxvn
ttyt
ttytdp
ttđb
ttđn
ttđt
tu
tua
tuabin
tuan
tuanvietnam
tuanzebe
tuareg
tube
tuchel
tucker
tucson
tufts
tui
tuk
tul
tula
tulip
tulisa
tulsa
tum
tumblr
tun
tundra
tung
tunguska
tunis
tunisia
tunnel
tuoitre
tupolev
tur
turan
turban
turbin
turbine
turbo
turchinov
turchynov
turf
turin
turing
turismo
turk
turkestan
turki
turkis
turkmen
turkmenistan
turn
turnbull
turner
turpin
turtle
tuscany
tusk
tussauds
tutankhamun
tuttosport
tuvalu
tuxedo
tuy
tuynel
tuynidi
tuyên
tuyến
tuyết
tuyền
tuyển
tuyệt
tuân
tuôn
tuông
tuôỉ
tuýp
tuýt
tuấn
tuất
tuần
tuẫn
tuế
tuếch
tuệ
tuốc
tuối
tuốt
tuồn
tuồng
tuổi
tuộc
tuột
tv
tvb
tvc
tvgs
tvgshđ
tvn
tvpl
tvqh
tvs
tvsi
tvxq
tw
twain
tweed
tweet
tweeter
twente
twenty
twice
twilight
twin
twins
twist
twitch
twitter
two
tx
txct
txnk
ty
tylenol
tyler
tymoshenko
type
typhoon
tyra
tyson
tzuyu
tà
tài
tàm
tàn
tàng
tành
tào
tàu
tày
tá
tác
tách
tái
tám
tán
táng
tánh
táo
táp
tát
tâm
tân
tâng
tâp
tâu
tây
tã
tè
tèo
té
téc
tém
tép
tét
tê
têhêran
tên
tì
tìm
tình
tí
tía
tích
tím
tín
tính
típ
tít
tíu
tò
tòa
tòi
tòng
tó
tóc
tóe
tóm
tóp
tót
tô
tôi
tôm
tôn
tông
tù
tùm
tùng
tùy
tú
túa
túc
túi
túm
túng
túp
tút
túy
tý
týp
tăcn
tăm
tăn
tăng
tđ
tđc
tđcs
tđkt
tđqt
tđst
tđt
tĩnh
tĩu
tơ
tơi
tơn
tư
tưlđtt
tưng
tươi
tươm
tương
tước
tưới
tướng
tường
tưởi
tưởng
tược
tượng
tạ
tạc
tạch
tại
tạm
tạng
tạnh
tạo
tạp
tạt
tả
tải
tản
tảng
tảo
tấc
tấm
tấn
tấp
tất
tấu
tấy
tầm
tần
tầng
tầu
tẩm
tẩn
tẩu
tẩy
tậm
tận
tập
tật
tậu
tắc
tắm
tắn
tắp
tắt
tằm
tằn
tằng
tặc
tặng
tẹo
tẹt
tẻ
tẻh
tẽ
tế
tết
tề
tể
tễ
tễnh
tễu
tệ
tệp
tỉ
tỉa
tỉm
tỉnh
tị
tịch
tịnh
tịt
tọa
tỏ
tỏa
tỏi
tố
tốc
tối
tốn
tống
tốp
tốt
tồ
tồi
tồn
tổ
tổn
tổng
tộ
tộc
tội
tột
tớ
tới
tớp
tờ
tởm
tợn
tụ
tục
tụi
tụm
tụng
tụt
tụy
tủ
tủa
tủi
tủm
tủy
tứ
tức
từ
từng
tử
tửu
tự
tựa
tựu
tỳ
tỷ
u
uac
uae
uav
uaz
ub
ubatgt
ubatgtqg
ubbc
ubck
ubcknn
ubd
ubdt
ubeda
uber
ubgstcqg
ubkt
ubkttw
ubkttư
ubmt
ubmttq
ubmttqvn
ubnd
ubndtp
ubqg
ubs
ubtp
ubtv
ubtvqh
ubtw
ubtư
ubtưmttq
ubuntu
uc
ucav
uche
uci
ucla
ucraina
ucraine
ud
udaloy
udd
udeid
udic
udinese
udom
udon
uee
uef
uefa
uevf
ufc
ufj
ufo
uganda
uh
uhd
uhm
uia
uighur
uk
ukip
ukrain
ukraina
ukraine
ukriane
ukroboronprom
uksong
ul
ulan
ulchi
uli
ulloa
ulreich
ulrich
ulsan
ultimate
ultra
ultrabook
ultrapixel
ultron
ulyanov
ulyanovsk
ulyukayev
um
uma
umami
umar
umarov
umbrella
umeda
umno
ump
umtiti
un
unai
unaids
unasur
unbd
unbroken
unchained
unclos
unctad
und
under
underbone
underground
underwood
undp
unep
unesco
unfpa
unfriend
ung
unha
unhcr
uni
unian
unicef
unicity
unicode
unicom
unicorn
unicredit
unido
unilever
uninstall
union
uniqlo
unique
unisex
unit
united
unitel
unity
univers
universal
universe
university
unknown
unlimited
unlock
uno
unodc
unpacked
unrwa
unwto
uob
uotsuri
up
upcom
update
updates
upi
upload
upper
uppsala
upr
ups
upside
upson
upton
upu
upvc
ur
uragan
ural
urals
uralvagonzavod
uran
urani
uranium
urban
urc
ure
urea
urenco
uri
uribe
uric
uriminzokkiri
url
ursula
urugoay
uruguay
urumqi
urus
urê
us
usa
usaf
usagi
usaid
usb
uscent
uscg
usd
usda
use
user
username
usfk
usgs
ushakov
usher
usilk
usm
usmanov
usni
usoyan
usps
uss
usth
ustinov
ustr
ut
utah
utair
utctc
utd
utgt
utility
utrecht
uts
uttar
uttarakhand
uuv
uv
uva
uvb
uvtw
uvtư
ux
uy
uyên
uyển
uzbek
uzbekistan
uôn
uông
uất
uẩn
uế
uể
uốn
uống
uổng
uột
uỳnh
v
va
vaart
vac
vaccin
vaccine
vaci
vacne
vacsava
vacxin
vadim
vafi
vahid
vai
vaio
vajiralongkorn
val
valak
valbuena
valcke
valdai
valdano
valdes
valdez
vale
valen
valencia
valencienne
valentin
valentina
valentine
valentino
valeri
valeria
valerie
valeriy
valero
valery
vali
valkyrie
valladolid
valle
vallecano
vallejo
vallet
valley
valls
valparaiso
valsartan
valse
value
valve
valverde
valy
vam
vama
vamc
vamm
vampire
van
vancouver
vandenberg
vander
vanderbilt
vanessa
vang
vanga
vanguard
vanh
vani
vanilla
vanity
vanquish
vantage
vanuatu
vao
var
varanasi
varane
vardy
varela
vargas
variety
vario
varoufakis
varshavyanka
varyag
vas
vasc
vasco
vaseline
vasep
vasil
vasili
vasily
vasilyev
vasquez
vass
vassily
vast
vat
vatc
vathanaka
vatican
vatm
vaughan
vaughn
vauxhal
vava
vay
vazquez
vb
vba
vbc
vbf
vbied
vbiz
vbl
vbma
vbqppl
vbsp
vc
vcb
vcbf
vcbs
vcci
vccorp
vcd
vcf
vcg
vci
vcis
vck
vcpmc
vcs
vcsb
vcsc
vctv
vd
vdb
vdc
vdl
vds
vdsc
ve
vea
veam
vec
vecino
vecom
vector
vedan
vedette
vedomosti
veera
vef
vega
vegas
vegetexco
vehicle
veil
vejjajiva
vel
vela
velar
velayat
veliky
velodrome
veloso
veloster
velvet
ven
veneno
veneto
venezuela
venice
venizelos
venom
ventrell
ventura
venture
ventures
venue
venus
venza
veo
vepr
ver
vera
veracruz
verba
verdasco
verde
verdi
verfi
vergara
verge
verisign
veritas
verizon
verkhovna
verma
vermaelen
vermont
verna
vernon
veron
verona
veronica
veronika
verratti
versa
versace
versailles
version
vertonghen
vertu
very
ves
vesak
vesel
veselnitskaya
vesnina
vespa
vest
veston
vetc
veteran
vettel
veyron
vf
vfa
vfb
vfc
vff
vfg
vfm
vfmvf
vfresh
vfs
vga
vgb
vgc
vgg
vgp
vgs
vgt
vh
vhc
vhg
vhm
vhnt
vhtt
vhttdl
vi
viac
viacom
viagra
vib
vibe
viber
vibrio
vic
vice
vicem
vichai
vicki
vicky
vicofa
vicoland
vicostone
victor
victoria
victory
vid
vida
vidal
vidamco
vidatox
video
videoclip
vidic
vidifi
vie
vieira
vienna
vientiane
vieri
viet
vietabank
vietabroader
vietbank
vietbuild
vietcapital
vietcom
vietcombank
vietfoods
vietgahp
vietgap
vietin
vietinbank
vietinbanksc
vietjet
vietjetair
vietkings
vietlott
vietnam
vietnamese
vietnamfinance
vietnammobile
vietnamnet
vietnamobile
vietnamplus
vietnampost
vietnamworks
vietq
vietracimex
vietrantour
vietravel
vietsan
vietsopetro
vietsov
vietsovpetro
vietstar
vietstock
vietsub
viettel
viettelpost
viettimes
viettinbank
viettronics
view
views
viewsonic
vifon
vifores
vifotec
vifw
vigecam
vigilant
viglacera
vigo
vihear
vii
viii
vijay
vikander
vikhr
viking
vikramaditya
vikrant
viktor
viktoria
vila
vilanova
villa
village
villar
villareal
villarreal
villas
ville
villegas
villeneuve
villepin
villiers
vilnius
vimeco
vimedimex
vimpelcom
vims
vin
vina
vinaca
vinacafe
vinacafé
vinacapital
vinacas
vinachem
vinaco
vinacomin
vinaconex
vinacontrol
vinafood
vinafor
vinagame
vinaincon
vinalines
vinalink
vinamazda
vinamed
vinamilk
vinamit
vinamotor
vinapco
vinaphone
vinare
vinasa
vinasat
vinaseed
vinashin
vinashinlines
vinasme
vinasoy
vinastar
vinastas
vinasun
vinataba
vinatex
vinatexmart
vinawaco
vinawealth
vinaxuki
vince
vincent
vincenz
vinci
vincom
vincon
vineco
vinexad
vineyard
vinfast
vingroup
vinh
vinhomes
vinicius
vinmart
vinmec
vinod
vinogradov
vinpa
vinpearl
vinpro
vinschool
vinson
vintage
vinyl
viola
violet
violin
violon
violympic
vios
vip
vipco
viper
vipico
vir
viraat
viral
virgil
virgin
virginia
virtual
virus
virut
virút
vis
visa
visakhapatnam
vishnu
vision
visit
visitor
vissai
vissan
vissay
vista
visual
vit
vita
vital
vitali
vitalk
vitaly
vitamin
vitamine
vitara
vitas
vitesse
vitinfo
vitm
vito
vitolo
vitoria
vitorino
vittori
vityaz
viva
vivaldi
vivaso
vivian
vivid
vivien
vivienne
vivo
vivobook
vivocity
viwaco
viwase
viwasupco
vix
viêc
viêm
viên
viêng
viêt
viếng
viết
viền
viềng
viễn
việc
viện
việt
vj
vja
vjc
vjepa
vk
vkfta
vkhh
vkhn
vkp
vks
vksnd
vksndtc
vkstc
vktbkt
vl
vla
vlaar
vlad
vladimir
vladislav
vladivostok
vlc
vlcc
vln
vlncn
vlog
vlogger
vltk
vlxd
vlxkn
vma
vmas
vmc
vms
vmtd
vmusic
vmware
vn
vna
vnaccs
vnah
vnbc
vncb
vncert
vnch
vnd
vndcch
vndirect
vne
vneco
vneconomy
vnen
vnexpress
vni
vnindex
vnisa
vnm
vnmedia
vnmidcap
vnn
vnnic
vnpaytv
vnpost
vnpt
vnr
vnrea
vnredsat
vnreview
vns
vnsmallcap
vnsteel
vnt
vntm
vnukov
vnukovo
vnxall
vnđ
vo
voa
voan
voc
vocal
vocarimex
vod
vodafone
vodianova
vodka
vof
vogel
vogt
vogue
voi
voice
voip
vol
volachith
volante
voldemort
volga
volgograd
volk
volker
volkov
volkswagen
volley
volodin
volodymyr
volt
voltaire
volume
volvo
von
vonfram
vong
vooc
vor
vorachith
vorm
voron
voronezh
vos
vosco
vostok
vostro
vote
votel
voucher
vov
vovinam
vovnews
vox
voyage
voyager
voòng
voọc
vp
vpa
vpb
vpbank
vpbs
vpcc
vpcp
vpf
vph
vphc
vpi
vpk
vpl
vpls
vpmilk
vpn
vpop
vpqh
vpsf
vpđd
vpđk
vpđkđđ
vqg
vr
vre
vrg
vrij
vrsaljko
vs
vsa
vsattp
vsc
vscc
vsd
vsh
vsi
vsip
vslđ
vsmt
vsmtnt
vsp
vssa
vst
vstbpn
vstv
vt
vta
vtb
vtc
vtcnews
vtec
vtf
vthk
vthkcc
vtn
vtnn
vtsiom
vtv
vtvcab
vtđ
vu
vua
vucinic
vui
vuitton
vujicic
vulcan
vun
vung
vungtau
vus
vusta
vuvuzela
vuông
vuốt
vuột
vv
vvf
vvt
vw
vws
vx
vy
vyacheslav
vympel
vysa
và
vài
vàng
vành
vào
vá
vác
vách
vái
ván
váng
vánh
váo
váp
vát
váy
vân
vâng
vây
vã
vãi
vãn
vãng
vãnh
vè
vèo
vé
vén
véo
vét
vê
vênh
vênêxuêla
vì
ví
vía
vích
vít
víu
vò
vòi
vòm
vòng
vó
vóc
vón
vót
vô
vôi
vù
vùi
vùn
vùng
vú
vút
văcxin
văn
văng
vđ
vđl
vđqg
vđtg
vđv
vĩ
vĩnh
vũ
vũng
vơ
vơi
vơí
vư
vưc
vưu
vươn
vương
vướng
vườn
vưởng
vược
vượn
vượng
vượt
vạ
vạc
vạch
vại
vạn
vạng
vạt
vạy
vả
vải
vảng
vảy
vấn
vấp
vất
vấy
vần
vầng
vầu
vầy
vẩn
vẩu
vẩy
vẫn
vẫy
vận
vập
vật
vậy
vắc
vắcxin
vắn
vắng
vắt
vằn
vằng
vẳn
vẳng
vặc
vặn
vặt
vẹm
vẹn
vẹo
vẹt
vẻ
vẻn
vẻo
vẽ
vế
vết
về
vể
vểnh
vệ
vệt
vỉ
vỉa
vị
vịnh
vịt
vọ
vọc
vọng
vọt
vỏ
vỏn
vố
vốc
vối
vốn
vồ
vồn
vồng
vỗ
vội
vớ
với
vớt
vờ
vời
vờn
vở
vởn
vỡ
vợ
vợt
vụ
vụn
vụt
vức
vứt
vừ
vừa
vừng
vữa
vững
vựa
vực
vựng
vỹ
w
wa
wada
wade
wadi
wag
wagner
wagon
wags
wagyu
wah
wahlberg
wai
wainwright
wait
waiting
waka
wakanda
wakayama
wake
wakefield
wal
walcott
wald
waldor
waleed
wales
walid
walk
walker
walking
walkman
wall
wallace
wallet
wallis
walloni
wallpaper
walmart
walsh
walt
walter
walters
walton
waltz
wan
wanbi
wanchai
wanda
wander
wanderers
wang
wanna
wannacry
want
wanted
wanyama
wap
war
warbur
warcraft
ward
warfare
warmbier
warner
warrant
warren
warrior
warriors
wars
warsaw
warszawa
warwick
was
wasabi
waseda
wash
washi
washington
wasi
wasp
wasser
waste
wat
watan
watanabe
watch
watchos
water
watergate
waterloo
watermark
waters
watford
watkins
watson
watt
watts
wav
wave
waverider
wawrinka
wax
waxing
way
waymo
wayne
wazir
waziristan
wb
wbc
wc
wco
wcs
wd
we
weah
wealth
weapon
wear
wearable
weather
weaver
web
webb
webber
webcam
weber
webgame
webmd
webos
website
webster
webtretho
wechat
wedding
wednesday
wee
week
weekend
weekly
weeknd
wef
wei
weibo
weidenfeller
weigang
weight
weighted
weigl
weiner
weinstein
weiss
weisz
weitz
wel
welbeck
welch
welcome
well
welle
welles
wellington
wellness
wells
wellspring
welsh
welt
wembley
wen
wendi
wendy
wenger
wepro
wer
werder
were
werner
wes
wesley
west
westbrook
western
westernbank
westerwelle
westfalen
westgate
westinghouse
westlake
westlife
westminster
westmoreland
westphalia
westwood
wet
wfp
wgc
wh
wha
whale
wharton
what
whatsapp
wheel
wheeler
whelan
when
where
whey
whi
which
while
whiplash
whipping
whiskey
whisky
whisper
whistle
whit
whitaker
white
whitehat
whitehead
whitehouse
whiteley
whitman
whitmore
whitney
who
whole
whoscored
why
wi
wick
wickham
wickremesinghe
wide
widebody
widget
widodo
widow
wiel
wien
wiese
wife
wifi
wigan
wiggins
wigo
wii
wijnaldum
wiki
wikileaks
wikimedia
wikipedia
wiko
wil
wilber
wilbur
wild
wildcat
wilde
wilder
wildlife
wildtrak
wiley
wilfred
wilhelm
wiliam
wilkins
wilkinson
will
willard
willem
william
williams
williamson
willian
willie
willis
willow
willy
wilmington
wilmots
wilshere
wilson
wiltshire
wimax
wimbledon
win
winchester
wind
window
windows
windsor
windy
wine
winehouse
winfrey
wing
wings
winner
winni
winslet
winston
winter
winterkorn
wintour
wipo
wirapol
wire
wired
wireless
wis
wisconsin
wisdom
wise
wish
wisla
wit
witch
witfor
with
witherspoon
witness
witsel
witt
wiz
wizard
wizards
wladimir
wm
wmo
wo
wojciech
wol
wolbachia
wolf
wolfe
wolff
wolfgang
wolfra
wolfsburg
wolverhampton
wolverine
wolves
woman
women
won
wonder
wonderbuy
wonderful
wonderland
wonders
wong
wongsuwan
wongsuwon
wonsan
woo
wood
woodland
woodley
woods
woodward
woody
wook
wool
woon
woong
woori
wor
worawi
worawut
worcester
word
wordpress
words
work
working
works
workshop
world
worldpanel
worldwide
worra
worth
worthington
would
wow
wozniacki
wozniak
wp
wpa
wpk
wr
wraith
wrangler
wrap
wray
wreck
wright
writer
writing
wroclaw
wrong
wrx
ws
wsb
wsj
wss
wt
wta
wtc
wti
wto
wu
wulff
wunna
wurtzbach
wushu
wvga
wwdc
wwe
wwf
www
wy
wyatt
wynn
wyoming
wz
wầm
x
xa
xabi
xan
xanh
xao
xavi
xavier
xay
xayaburi
xb
xbox
xc
xca
xcô
xcơ
xcốt
xd
xdcb
xdct
xdctgt
xdll
xdntm
xdrive
xe
xem
xen
xenlulo
xenon
xepian
xerez
xerox
xf
xh
xhaka
xhcn
xherda
xhh
xhtd
xhtt
xi
xia
xian
xiang
xiao
xiaomi
xie
xii
xiii
xilanh
ximăng
xin
xinh
xinhgapo
xinhua
xinhuanet
xinxing
xiong
xiu
xiumin
xiv
xix
xiêm
xiên
xiêng
xiêu
xiếc
xiết
xiếu
xiềng
xiển
xiểng
xj
xk
xki
xklđ
xl
xla
xlhn
xlnt
xlvphc
xlô
xm
xmc
xmhp
xmxt
xnc
xncb
xnk
xo
xoa
xoan
xoang
xoay
xoe
xoi
xom
xong
xoom
xoong
xoài
xoàm
xoàn
xoàng
xoành
xoáy
xoăn
xoạc
xoạch
xoảng
xoắn
xoẹt
xp
xpander
xperia
xphc
xpvphc
xq
xquang
xr
xra
xri
xs
xskt
xt
xta
xtan
xtin
xtrây
xtsg
xttm
xtê
xtô
xtđt
xtơ
xtốc
xu
xua
xuan
xue
xui
xum
xung
xuy
xuyên
xuyến
xuyết
xuyền
xuyệt
xuân
xuât
xuê
xuôi
xuông
xuýt
xuđăng
xuất
xuẩn
xuề
xuể
xuống
xuồng
xv
xvi
xvii
xviii
xwb
xx
xxi
xxx
xy
xyanua
xylanh
xyri
xyz
xz
xà
xài
xào
xá
xác
xách
xám
xán
xáng
xáo
xát
xâm
xâu
xây
xã
xè
xèng
xèo
xé
xéc
xém
xén
xéo
xép
xét
xê
xên
xênh
xêút
xì
xình
xìu
xí
xích
xín
xính
xít
xíu
xòa
xòe
xó
xóa
xóc
xói
xóm
xót
xô
xôi
xôm
xôn
xông
xôviết
xù
xùa
xùm
xú
xúat
xúc
xúi
xúm
xúng
xúp
xút
xúy
xăm
xăng
xđgn
xơ
xơi
xơn
xư
xưa
xưng
xương
xước
xướng
xường
xưởng
xược
xạ
xạc
xạo
xả
xảo
xảy
xấc
xấp
xấu
xầm
xẩm
xẩu
xẩy
xắc
xắn
xắp
xắt
xẹo
xẹp
xẹt
xẻ
xẻng
xẻo
xế
xếch
xếp
xề
xệ
xệch
xỉ
xỉa
xỉn
xỉu
xị
xịch
xịn
xịt
xỏ
xỏn
xố
xốc
xối
xốn
xống
xốp
xốt
xồ
xồm
xồng
xổ
xổi
xổm
xổng
xộ
xộn
xới
xớt
xở
xụ
xụp
xứ
xức
xứng
xừ
xử
xự
y
ya
yaalon
yacht
yacob
yadanarbon
yadav
yahoo
yahya
yak
yakhont
yakovenko
yakovlev
yakubu
yakuza
yala
yale
yalta
yaly
yam
yama
yamada
yamagata
yamaguchi
yamaha
yamal
yamamoto
yamanaka
yamanashi
yamashita
yamato
yamazaki
yameen
yan
yana
yanbi
yandex
yang
yangon
yankee
yanmar
yann
yannic
yantv
yanukovich
yanukovych
yao
yaourt
yar
yard
yaris
yarmolenko
yarmouk
yarosh
yaroslav
yaroslavl
yars
yas
yasay
yasen
yashin
yasin
yasmin
yassin
yasu
yasuaki
yasuda
yasuhi
yasukuni
yasumasa
yasuo
yasuy
yat
yates
yathotou
yatseniuk
yatsenyuk
yaya
yaz
yazaki
yazidi
ye
yeah
year
years
yedlin
yee
yeezy
yeg
yekaterina
yekaterinburg
yellen
yellow
yellowstone
yeltsin
yemen
yen
yeo
yeol
yeon
yeong
yeonpyeong
yerevan
yersin
yes
yeu
yeung
yeutreth
yev
yevgeny
yg
yhct
yi
yildirim
yilmaz
yim
yin
ying
yingluck
yj
yo
yoga
yogurt
yogyakarta
yohan
yoichi
yok
yoko
yokohama
yokosuka
yokota
yolanda
yolanthe
yolo
yomiuri
yomost
yon
yonaguni
yong
yongbyon
yongsan
yonhap
yoni
yonsei
yoo
yoochun
yoon
yoona
yooyen
york
yorke
yorkshire
yosakoi
yosemite
yoshi
yoshida
yoshihi
yoshihiko
yoshito
yotaphone
you
yougov
youme
younes
young
younghusband
younis
your
yourself
yousafzai
yousef
youssef
yousuf
youth
youtube
youtuber
youzhny
yoyo
ypg
yseali
ytdp
ytn
ytt
yu
yuan
yucatan
yudhoyono
yue
yuen
yuichi
yuji
yukawa
yuki
yukio
yukiya
yuko
yukon
yukos
yulia
yum
yume
yumi
yun
yuna
yung
yunho
yunus
yuri
yuriko
yuriy
yury
yushchenko
yusof
yusuf
yutu
yvonne
yxineff
yàng
yêm
yêmen
yên
yêu
yêú
yếm
yến
yết
yếu
yểm
yểu
z
za
zabaleta
zabi
zac
zaccheroni
zach
zachary
zack
zag
zagato
zagreb
zah
zaha
zahara
zaharie
zahia
zahid
zahir
zahra
zai
zaid
zaira
zak
zakaria
zakharchenko
zakharova
zala
zalo
zalora
zam
zaman
zambales
zambia
zamboanga
zambrotta
zamora
zan
zanetti
zang
zanganeh
zanu
zanzibar
zap
zapad
zapata
zapatero
zappacosta
zaquan
zar
zara
zaragoza
zarate
zardari
zarif
zarour
zarqawi
zarra
zarubezhneft
zaventem
zaw
zawahiri
zawahri
zayed
zayn
zaza
zdf
zdnet
zdravko
ze
zealand
zeaxanthin
zebari
zedd
zee
zeid
zeise
zeiss
zeit
zeitung
zel
zeland
zelaya
zelda
zelen
zelenodolsk
zeman
zen
zenbook
zenfone
zeng
zenit
zenpa
zenwatch
zeppelin
zero
zeta
zetas
zeus
zezo
zf
zhan
zhang
zhao
zhe
zhejiang
zhen
zheng
zhi
zhirinovsky
zhirkov
zhong
zhou
zhu
zhukov
zhukovsky
zi
zia
zico
zidane
zig
zika
zil
zilina
zim
zimbabwe
zimbio
zimmer
zimmerman
zin
zinedine
zing
zingchart
zinger
zintan
zion
zip
zippo
zircon
zizou
zl
zlat
zlatan
zma
zn
zo
zodiac
zoe
zoellick
zogbia
zola
zolot
zombie
zon
zona
zonda
zone
zong
zonzi
zoo
zoom
zootopia
zor
zora
zorya
zou
zouma
zour
zr
zsu
zte
zu
zub
zubizarreta
zubr
zucker
zuckerberg
zul
zulu
zuma
zumba
zumbo
zumwalt
zun
zune
zuniga
zurich
zverev
zvezda
zvonareva
zx
zy
zynga
zyuganov
zèng
zíc
zôn
zăng
zơ
zắc
à
ào
á
ác
ách
áchentina
ái
álvar
ám
án
áng
ánh
áo
áp
ápganixtan
át
áy
â
âl
âm
ân
âu
è
èo
é
éc
élyseé
ém
én
éo
ép
ê
êban
êbur
êkip
êkíp
êm
êđê
ì
í
ích
ít
òa
ó
óc
ói
ón
óng
ót
ô
ôi
ôliu
ôm
ôn
ông
ôsin
ôtô
ôxi
ôxtrâylia
ôxy
ôzôn
ù
ùm
ùn
ú
úa
úc
úm
úng
úp
út
úy
ý
ăn
ăngten
đ
đa
đai
đak
đakrông
đam
đan
đang
đanh
đao
đau
đay
đb
đbkk
đbp
đbqh
đbscl
đbsh
đbvn
đcs
đcsvn
đct
đctt
đd
đdsh
đe
đem
đen
đeo
đgnl
đgts
đh
đhbk
đhcđ
đhdl
đhkhtn
đhkhxh
đhktqd
đhqg
đhqghn
đhsp
đhyd
đhđ
đhđcđ
đhđn
đi
đinh
điên
điêu
điêzen
điêù
điôxin
điếc
điếm
điếng
điếu
điềm
điền
điều
điểm
điển
điểu
điện
điệp
điệu
đk
đkcg
đkdt
đkkd
đkkt
đknk
đkt
đktt
đkvn
đkvđ
đkxt
đmc
đmdn
đmst
đna
đná
đo
đoa
đoan
đom
đon
đong
đoài
đoàn
đoác
đoái
đoán
đoòng
đoạn
đoạt
đoản
đoảng
đpcc
đrinh
đrít
đră
đrăk
đrăng
đrắk
đs
đsct
đspl
đsq
đst
đsvn
đsđt
đt
đtck
đtdđ
đtla
đtm
đtnn
đtnđ
đtqg
đtqm
đttc
đttm
đttn
đttp
đtv
đtvn
đtxd
đtđ
đu
đua
đuma
đun
đung
đuôi
đuông
đuốc
đuối
đuống
đuổi
đv
đvcđ
đvhd
đvo
đvsncl
đvtn
đx
đz
đà
đài
đàm
đàn
đàng
đành
đào
đày
đá
đác
đái
đám
đán
đáng
đánh
đáo
đáp
đát
đáu
đáy
đâ
đâm
đât
đâu
đây
đâù
đã
đãi
đè
đèn
đèo
đéc
đén
đép
đét
đê
đêm
đên
đênh
đì
đìa
đình
đích
đính
đít
đò
đòi
đòn
đòng
đó
đói
đón
đóng
đô
đôi
đôla
đôn
đông
đôrêmon
đù
đùa
đùi
đùm
đùn
đùng
đú
đúa
đúc
đúm
đúng
đúp
đút
đă
đăc
đăk
đăkrông
đăm
đăng
đđk
đĩ
đĩa
đĩnh
đũa
đũi
đũng
đơ
đơm
đơn
đư
đưa
đươ
đươc
đương
đưọc
đước
đười
đường
đượ
được
đượm
đạ
đạc
đại
đạm
đạn
đạo
đạp
đạt
đả
đảm
đản
đảng
đảnh
đảo
đấm
đấng
đất
đấu
đấy
đầm
đần
đầu
đầy
đẩu
đẩy
đẫm
đẫn
đẫy
đậm
đận
đập
đật
đậu
đậy
đắc
đắk
đắm
đắn
đắng
đắp
đắt
đằm
đằng
đẳng
đặc
đặn
đặng
đặt
đẹ
đẹp
đẹt
đẻ
đẽ
đẽo
đế
đếm
đến
đề
đềm
đền
đều
để
đễ
đễnh
đệ
đệm
đỉa
đỉnh
đị
địa
địch
định
địu
đọ
đọa
đọc
đọi
[...]
